{"char":{"<pad>":0,"<unk>":1,"<mask>":2,"<cls>":3,"的":4,"是":5,"一":6,"不":7,"了":8,"有":9,"在":10,"我":11,"人":12,"个":13,"这":14,"大":15,"中":16,"和":17,"要":18,"以":19,"上":20,"为":21,"他":22,"就":23,"来":24,"能":25,"学":26,"生":27,"到":28,"们":29,"会":30,"时":31,"可":32,"你":33,"用":34,"也":35,"自":36,"出":37,"多":38,"对":39,"下":40,"地":41,"发":42,"子":43,"国":44,"作":45,"都":46,"成":47,"过":48,"行":49,"好":50,"后":51,"家":52,"现":53,"方":54,"还":55,"于":56,"没":57,"得":58,"业":59,"么":60,"理":61,"分":62,"看":63,"那":64,"面":65,"工":66,"着":67,"而":68,"定":69,"之":70,"开":71,"动":72,"如":73,"说":74,"心":75,"法":76,"小":77,"天":78,"经":79,"高":80,"实":81,"进":82,"去":83,"本":84,"很":85,"里":86,"力":87,"体":88,"然":89,"与":90,"所":91,"事":92,"其":93,"年":94,"最":95,"同":96,"化":97,"些":98,"主":99,"道":100,"等":101,"性":102,"点":103,"公":104,"己":105,"前":106,"文":107,"种":108,"全":109,"间":110,"部":111,"重":112,"关":113,"合":114,"机":115,"新":116,"起":117,"想":118,"应":119,"情":120,"长":121,"但":122,"物":123,"果":124,"意":125,"样":126,"只":127,"当":128,"知":129,"者":130,"因":131,"产":132,"做":133,"加":134,"通":135,"内":136,"市":137,"提":138,"度":139,"明":140,"相":141,"她":142,"更":143,"手":144,"教":145,"位":146,"题":147,"水":148,"及":149,"量":150,"数":151,"无":152,"比":153,"老":154,"正":155,"电":156,"从":157,"入":158,"问":159,"常":160,"品":161,"将":162,"程":163,"外":164,"给":165,"身":166,"被":167,"或":168,"制":169,"并":170,"保":171,"系":172,"活":173,"让":174,"信":175,"解":176,"什":177,"次":178,"感":179,"展":180,"建":181,"表":182,"两":183,"期":184,"资":185,"把":186,"三":187,"管":188,"场":189,"名":190,"美":191,"目":192,"区":193,"特":194,"已":195,"件":196,"使":197,"代":198,"考":199,"设":200,"务":201,"平":202,"接":203,"基":204,"回":205,"民":206,"安":207,"结":208,"式":209,"头":210,"利":211,"需":212,"员":213,"少":214,"计":215,"金":216,"向":217,"师":218,"真":219,"气":220,"车":221,"变":222,"原":223,"处":224,"交":225,"第":226,"才":227,"术":228,"由":229,"再":230,"色":231,"西":232,"此":233,"几":234,"司":235,"科":236,"打":237,"海":238,"又":239,"直":240,"话":241,"东":242,"日":243,"政":244,"质":245,"各":246,"流":247,"受":248,"别":249,"任":250,"它":251,"单":252,"太":253,"书":254,"候":255,"十":256,"该":257,"放":258,"院":259,"网":260,"口":261,"强":262,"门":263,"路":264,"二":265,"完":266,"形":267,"觉":268,"认":269,"研":270,"立":271,"类":272,"服":273,"持":274,"求":275,"先":276,"习":277,"收":278,"白":279,"每":280,"据":281,"孩":282,"统":283,"风":284,"导":285,"技":286,"儿":287,"证":288,"女":289,"容":290,"范":291,"具":292,"带":293,"何":294,"反":295,"传":296,"影":297,"买":298,"价":299,"较":300,"格":301,"指":302,"光":303,"城":304,"规":305,"见":306,"世":307,"非":308,"清":309,"专":310,"调":311,"整":312,"线":313,"山":314,"今":315,"选":316,"思":317,"改":318,"组":319,"林":320,"确":321,"究":322,"试":323,"像":324,"息":325,"记":326,"标":327,"运":328,"空":329,"算":330,"论":331,"效":332,"准":333,"语":334,"难":335,"校":336,"边":337,"备":338,"便":339,"注":340,"识":341,"造":342,"商":343,"总":344,"取":345,"社":346,"快":347,"器":348,"房":349,"字":350,"始":351,"界":352,"啊":353,"育":354,"报":355,"至":356,"南":357,"走":358,"北":359,"越":360,"深":361,"股":362,"转":363,"神":364,"治":365,"复":366,"花":367,"眼":368,"级":369,"创":370,"病":371,"费":372,"项":373,"办":374,"钱":375,"户":376,"步":377,"根":378,"条":379,"包":380,"观":381,"易":382,"精":383,"源":384,"怎":385,"型":386,"台":387,"四":388,"节":389,"写":390,"决":391,"存":392,"推":393,"医":394,"且":395,"联":396,"视":397,"消":398,"示":399,"功":400,"料":401,"声":402,"必":403,"构":404,"领":405,"住":406,"找":407,"近":408,"态":409,"权":410,"广":411,"王":412,"马":413,"查":414,"环":415,"低":416,"爱":417,"达":418,"却":419,"投":420,"养":421,"象":422,"装":423,"引":424,"则":425,"况":426,"吃":427,"告":428,"验":429,"响":430,"图":431,"企":432,"布":433,"亲":434,"共":435,"吧":436,"请":437,"集":438,"供":439,"片":440,"乐":441,"斯":442,"干":443,"极":444,"言":445,"热":446,"增":447,"支":448,"望":449,"往":450,"课":451,"未":452,"许":453,"月":454,"离":455,"微":456,"境":457,"义":458,"周":459,"助":460,"段":461,"音":462,"续":463,"模":464,"命":465,"满":466,"照":467,"护":468,"细":469,"战":470,"优":471,"参":472,"听":473,"案":474,"值":475,"断":476,"省":477,"营":478,"张":479,"致":480,"够":481,"显":482,"素":483,"友":484,"测":485,"食":486,"客":487,"置":488,"士":489,"跟":490,"远":491,"随":492,"除":493,"速":494,"历":495,"江":496,"即":497,"轻":498,"议":499,"吗":500,"军":501,"游":502,"失":503,"画":504,"站":505,"读":506,"早":507,"喜":508,"五":509,"升":510,"拉":511,"排":512,"死":513,"州":514,"防":515,"局":516,"呢":517,"哪":518,"适":519,"施":520,"压":521,"球":522,"首":523,"血":524,"闲":525,"际":526,"责":527,"百":528,"酒":529,"华":530,"按":531,"欢":532,"石":533,"队":534,"连":535,"足":536,"维":537,"状":538,"配":539,"险":540,"控":541,"率":542,"史":543,"终":544,"落":545,"职":546,"宝":547,"域":548,"帮":549,"团":550,"群":551,"半":552,"药":553,"艺":554,"般":555,"红":556,"限":557,"妈":558,"属":559,"济":560,"火":561,"差":562,"德":563,"号":564,"修":565,"材":566,"留":567,"母":568,"势":569,"景":570,"依":571,"积":572,"监":573,"府":574,"似":575,"择":576,"错":577,"采":578,"切":579,"检":580,"故":581,"众":582,"律":583,"京":584,"古":585,"层":586,"万":587,"温":588,"元":589,"划":590,"班":591,"父":592,"村":593,"官":594,"角":595,"农":596,"仅":597,"园":598,"列":599,"居":600,"克":601,"英":602,"底":603,"朝":604,"委":605,"预":606,"围":607,"希":608,"密":609,"份":610,"夏":611,"讲":612,"获":613,"尽":614,"负":615,"充":616,"阳":617,"核":618,"疗":619,"否":620,"严":621,"青":622,"拿":623,"简":624,"星":625,"黑":626,"室":627,"双":628,"河":629,"称":630,"免":631,"國":632,"某":633,"笑":634,"油":635,"兴":636,"评":637,"土":638,"念":639,"害":640,"承":641,"序":642,"健":643,"卖":644,"乎":645,"初":646,"板":647,"换":648,"策":649,"刚":650,"尔":651,"争":652,"察":653,"虽":654,"须":655,"族":656,"款":657,"突":658,"晚":659,"男":660,"培":661,"招":662,"织":663,"超":664,"独":665,"阿":666,"版":667,"您":668,"益":669,"紧":670,"练":671,"刻":672,"演":673,"富":674,"朋":675,"玩":676,"送":677,"银":678,"味":679,"香":680,"停":681,"析":682,"句":683,"皇":684,"背":685,"吸":686,"章":687,"例":688,"激":689,"普":690,"软":691,"黄":692,"破":693,"协":694,"诉":695,"坚":696,"康":697,"待":698,"录":699,"愿":700,"互":701,"脑":702,"曾":703,"减":704,"慢":705,"编":706,"码":707,"亚":708,"牌":709,"盘":710,"皮":711,"继":712,"词":713,"智":714,"另":715,"销":716,"静":717,"伤":718,"降":719,"止":720,"票":721,"卡":722,"志":723,"补":724,"善":725,"千":726,"含":727,"括":728,"县":729,"融":730,"绝":731,"港":732,"假":733,"击":734,"久":735,"云":736,"帝":737,"担":738,"令":739,"党":740,"李":741,"临":742,"约":743,"笔":744,"甚":745,"异":746,"训":747,"短":748,"财":749,"六":750,"叫":751,"怕":752,"树":753,"波":754,"飞":755,"良":756,"坐":757,"答":758,"购":759,"苦":760,"脸":761,"础":762,"述":763,"络":764,"块":765,"冷":766,"批":767,"介":768,"审":769,"福":770,"掉":771,"為":772,"遇":773,"毒":774,"苏":775,"卫":776,"申":777,"举":778,"铁":779,"移":780,"春":781,"夫":782,"穿":783,"货":784,"索":785,"若":786,"享":787,"木":788,"龙":789,"印":790,"端":791,"巴":792,"倒":793,"店":794,"罗":795,"靠":796,"楼":797,"付":798,"略":799,"痛":800,"操":801,"夜":802,"载":803,"均":804,"灵":805,"赛":806,"虑":807,"套":808,"稳":809,"肯":810,"征":811,"竟":812,"博":813,"顾":814,"植":815,"急":816,"衣":817,"庭":818,"草":819,"输":820,"执":821,"熟":822,"肉":823,"顺":824,"谁":825,"频":826,"亮":827,"患":828,"毕":829,"退":830,"奇":831,"兰":832,"哈":833,"抗":834,"陈":835,"冲":836,"曲":837,"估":838,"叶":839,"武":840,"八":841,"杀":842,"跑":843,"散":844,"歌":845,"乡":846,"毛":847,"缺":848,"渐":849,"爸":850,"革":851,"仍":852,"酸":853,"宣":854,"贵":855,"堂":856,"搞":857,"著":858,"探":859,"染":860,"睡":861,"戏":862,"键":863,"拍":864,"概":865,"损":866,"脚":867,"趣":868,"谈":869,"杂":870,"藏":871,"婚":872,"诗":873,"丰":874,"座":875,"丝":876,"警":877,"沉":878,"镇":879,"握":880,"佛":881,"液":882,"掌":883,"剂":884,"宫":885,"旅":886,"汉":887,"彩":888,"菜":889,"症":890,"哥":891,"阶":892,"避":893,"促":894,"兵":895,"派":896,"劳":897,"追":898,"涨":899,"谢":900,"售":901,"奶":902,"判":903,"松":904,"守":905,"困":906,"绿":907,"额":908,"副":909,"陆":910,"聚":911,"庆":912,"楚":913,"湖":914,"饭":915,"托":916,"典":917,"纳":918,"讨":919,"纪":920,"雨":921,"障":922,"登":923,"针":924,"借":925,"固":926,"巨":927,"绩":928,"翻":929,"永":930,"逐":931,"剧":932,"馆":933,"疫":934,"洗":935,"乱":936,"顶":937,"弟":938,"米":939,"透":940,"季":941,"疑":942,"牛":943,"七":944,"射":945,"授":946,"洲":947,"怀":948,"既":949,"硬":950,"缓":951,"危":952,"符":953,"播":954,"挥":955,"礼":956,"床":957,"學":958,"余":959,"启":960,"脱":961,"骨":962,"宜":963,"释":964,"露":965,"珠":966,"尼":967,"封":968,"轮":969,"跌":970,"拥":971,"私":972,"误":973,"努":974,"库":975,"附":976,"鬼":977,"恩":978,"喝":979,"筑":980,"宗":981,"丽":982,"川":983,"坏":984,"刺":985,"惊":986,"赚":987,"纸":988,"雪":989,"圈":990,"麻":991,"综":992,"九":993,"寒":994,"幼":995,"央":996,"竞":997,"阴":998,"鱼":999,"归":1000,"汇":1001,"汽":1002,"贴":1003,"烈":1004,"督":1005,"幸":1006,"敢":1007,"疾":1008,"阅":1009,"隐":1010,"忙":1011,"街":1012,"盖":1013,"触":1014,"鲜":1015,"遗":1016,"呼":1017,"啥":1018,"蛋":1019,"闻":1020,"予":1021,"會":1022,"野":1023,"宁":1024,"姐":1025,"沙":1026,"午":1027,"童":1028,"粉":1029,"齐":1030,"懂":1031,"混":1032,"奖":1033,"救":1034,"休":1035,"税":1036,"胞":1037,"绍":1038,"厂":1039,"伴":1040,"册":1041,"航":1042,"寻":1043,"尤":1044,"抓":1045,"秀":1046,"询":1047,"右":1048,"签":1049,"菌":1050,"左":1051,"秋":1052,"访":1053,"束":1054,"虚":1055,"架":1056,"餐":1057,"甲":1058,"遍":1059,"延":1060,"惯":1061,"威":1062,"氧":1063,"茶":1064,"占":1065,"暗":1066,"默":1067,"侧":1068,"船":1069,"迎":1070,"卷":1071,"睛":1072,"弱":1073,"婆":1074,"欧":1075,"冰":1076,"梦":1077,"於":1078,"偏":1079,"耳":1080,"斗":1081,"旁":1082,"违":1083,"饮":1084,"媒":1085,"弄":1086,"途":1087,"烦":1088,"献":1089,"洋":1090,"净":1091,"旧":1092,"蒙":1093,"攻":1094,"累":1095,"措":1096,"厚":1097,"尚":1098,"烧":1099,"禁":1100,"席":1101,"链":1102,"圆":1103,"醒":1104,"描":1105,"糖":1106,"励":1107,"烟":1108,"窗":1109,"牙":1110,"偶":1111,"暴":1112,"折":1113,"忽":1114,"颜":1115,"剑":1116,"践":1117,"淡":1118,"罪":1119,"鼓":1120,"昨":1121,"涉":1122,"灯":1123,"忘":1124,"败":1125,"弹":1126,"恶":1127,"挂":1128,"篇":1129,"湿":1130,"岛":1131,"污":1132,"钢":1133,"犯":1134,"田":1135,"怪":1136,"纯":1137,"赶":1138,"唯":1139,"秘":1140,"幅":1141,"時":1142,"末":1143,"呀":1144,"繁":1145,"墙":1146,"骑":1147,"與":1148,"跳":1149,"挑":1150,"厅":1151,"距":1152,"蓝":1153,"扩":1154,"纷":1155,"缩":1156,"岁":1157,"泛":1158,"租":1159,"雷":1160,"聊":1161,"唐":1162,"恐":1163,"宽":1164,"抱":1165,"舞":1166,"辑":1167,"弃":1168,"俄":1169,"屋":1170,"妇":1171,"刘":1172,"玉":1173,"伙":1174,"聘":1175,"抽":1176,"盛":1177,"貌":1178,"徐":1179,"浪":1180,"塔":1181,"庄":1182,"诸":1183,"池":1184,"零":1185,"乳":1186,"账":1187,"佳":1188,"嘴":1189,"亡":1190,"镜":1191,"径":1192,"啦":1193,"奥":1194,"贷":1195,"肥":1196,"诚":1197,"刷":1198,"绪":1199,"阵":1200,"狗":1201,"拟":1202,"爆":1203,"衡":1204,"胡":1205,"驾":1206,"胜":1207,"替":1208,"娃":1209,"峰":1210,"燃":1211,"仪":1212,"妹":1213,"订":1214,"炎":1215,"巧":1216,"肤":1217,"摄":1218,"顿":1219,"祖":1220,"冬":1221,"箱":1222,"尊":1223,"残":1224,"搭":1225,"档":1226,"储":1227,"亦":1228,"伊":1229,"焦":1230,"宋":1231,"沟":1232,"隔":1233,"闭":1234,"辆":1235,"阻":1236,"币":1237,"爷":1238,"姓":1239,"岗":1240,"映":1241,"谓":1242,"後":1243,"暖":1244,"桥":1245,"滑":1246,"缘":1247,"伸":1248,"桌":1249,"泽":1250,"耐":1251,"孙":1252,"译":1253,"呈":1254,"页":1255,"抵":1256,"鸡":1257,"君":1258,"荣":1259,"浓":1260,"润":1261,"伯":1262,"爵":1263,"潜":1264,"迷":1265,"逾":1266,"沿":1267,"钟":1268,"舒":1269,"膜":1270,"递":1271,"肌":1272,"脉":1273,"绘":1274,"唱":1275,"哦":1276,"殊":1277,"孔":1278,"填":1279,"震":1280,"荐":1281,"忆":1282,"迹":1283,"刀":1284,"對":1285,"柔":1286,"凝":1287,"圣":1288,"鸟":1289,"桃":1290,"發":1291,"腿":1292,"乌":1293,"寿":1294,"驶":1295,"循":1296,"忍":1297,"娘":1298,"讯":1299,"饰":1300,"夕":1301,"伦":1302,"废":1303,"肠":1304,"莫":1305,"吉":1306,"绕":1307,"陛":1308,"彻":1309,"漫":1310,"嘛":1311,"湾":1312,"旗":1313,"尖":1314,"乔":1315,"摆":1316,"杨":1317,"脏":1318,"妻":1319,"戴":1320,"灰":1321,"添":1322,"猪":1323,"竹":1324,"幕":1325,"洁":1326,"赏":1327,"邮":1328,"奋":1329,"胃":1330,"丹":1331,"搜":1332,"泡":1333,"潮":1334,"矿":1335,"磁":1336,"腾":1337,"摩":1338,"趋":1339,"颗":1340,"悉":1341,"磨":1342,"坦":1343,"债":1344,"灾":1345,"脂":1346,"扬":1347,"虫":1348,"仿":1349,"券":1350,"挺":1351,"洞":1352,"毫":1353,"尝":1354,"谷":1355,"插":1356,"塑":1357,"雄":1358,"岸":1359,"森":1360,"陷":1361,"诊":1362,"详":1363,"抢":1364,"辅":1365,"辛":1366,"亏":1367,"诺":1368,"帐":1369,"個":1370,"勇":1371,"暂":1372,"兄":1373,"宇":1374,"欲":1375,"洛":1376,"迅":1377,"冠":1378,"奏":1379,"恢":1380,"杯":1381,"侵":1382,"偿":1383,"泰":1384,"盟":1385,"仓":1386,"敬":1387,"炼":1388,"豆":1389,"灭":1390,"逃":1391,"迫":1392,"雅":1393,"拼":1394,"泥":1395,"铺":1396,"慧":1397,"籍":1398,"敏":1399,"碰":1400,"扫":1401,"尾":1402,"盐":1403,"臣":1404,"赞":1405,"冒":1406,"旦":1407,"氏":1408,"贸":1409,"陪":1410,"塞":1411,"届":1412,"贝":1413,"拜":1414,"猫":1415,"粒":1416,"壁":1417,"骗":1418,"墨":1419,"械":1420,"堆":1421,"摇":1422,"姆":1423,"遭":1424,"闪":1425,"胸":1426,"疼":1427,"胶":1428,"凡":1429,"妙":1430,"偷":1431,"拖":1432,"秦":1433,"倍":1434,"扎":1435,"振":1436,"曼":1437,"萍":1438,"丁":1439,"胆":1440,"龄":1441,"辈":1442,"剩":1443,"跨":1444,"咨":1445,"尿":1446,"裂":1447,"伟":1448,"汤":1449,"稍":1450,"舍":1451,"鲁":1452,"來":1453,"碎":1454,"薄":1455,"這":1456,"圳":1457,"浮":1458,"荷":1459,"贫":1460,"扶":1461,"址":1462,"津":1463,"肝":1464,"腰":1465,"凉":1466,"扰":1467,"伍":1468,"瓦":1469,"倾":1470,"召":1471,"悲":1472,"耗":1473,"凭":1474,"抑":1475,"苗":1476,"锁":1477,"珍":1478,"裁":1479,"纹":1480,"厉":1481,"摸":1482,"朗":1483,"艾":1484,"袋":1485,"乘":1486,"哲":1487,"腹":1488,"汗":1489,"贯":1490,"俗":1491,"叔":1492,"肩":1493,"癌":1494,"罚":1495,"赔":1496,"闹":1497,"溶":1498,"壮":1499,"覆":1500,"並":1501,"尺":1502,"肿":1503,"虎":1504,"鉴":1505,"孕":1506,"恒":1507,"羊":1508,"碳":1509,"撑":1510,"吹":1511,"炒":1512,"横":1513,"腐":1514,"徒":1515,"惜":1516,"狂":1517,"梅":1518,"返":1519,"杆":1520,"經":1521,"惠":1522,"殖":1523,"兼":1524,"現":1525,"胎":1526,"谱":1527,"欣":1528,"览":1529,"堡":1530,"玻":1531,"紫":1532,"扣":1533,"筹":1534,"漂":1535,"郁":1536,"乏":1537,"刑":1538,"撞":1539,"動":1540,"贡":1541,"軍":1542,"拓":1543,"允":1544,"泉":1545,"璃":1546,"旋":1547,"晶":1548,"迁":1549,"劲":1550,"澳":1551,"瓶":1552,"體":1553,"屏":1554,"粗":1555,"區":1556,"拒":1557,"勒":1558,"吴":1559,"雕":1560,"韩":1561,"怒":1562,"梁":1563,"漏":1564,"肺":1565,"乙":1566,"勤":1567,"昂":1568,"逻":1569,"擦":1570,"朵":1571,"敌":1572,"犹":1573,"晓":1574,"奔":1575,"瑞":1576,"董":1577,"锅":1578,"寄":1579,"廷":1580,"梯":1581,"仔":1582,"甘":1583,"爬":1584,"遵":1585,"誉":1586,"宿":1587,"恋":1588,"洪":1589,"隆":1590,"哭":1591,"產":1592,"涂":1593,"赖":1594,"眉":1595,"爽":1596,"圾":1597,"垃":1598,"拔":1599,"驱":1600,"稿":1601,"赵":1602,"淘":1603,"語":1604,"姑":1605,"氛":1606,"泪":1607,"渠":1608,"滴":1609,"枝":1610,"赌":1611,"伏":1612,"框":1613,"荡":1614,"魔":1615,"業":1616,"蒋":1617,"割":1618,"萨":1619,"赢":1620,"愈":1621,"朱":1622,"開":1623,"琴":1624,"踏":1625,"邀":1626,"援":1627,"碍":1628,"肾":1629,"咱":1630,"孤":1631,"署":1632,"統":1633,"忧":1634,"鞋":1635,"坡":1636,"壳":1637,"盾":1638,"逼":1639,"喷":1640,"盈":1641,"陶":1642,"迟":1643,"浅":1644,"鼻":1645,"纠":1646,"锋":1647,"催":1648,"狼":1649,"祝":1650,"麦":1651,"宙":1652,"岩":1653,"畅":1654,"跃":1655,"瓜":1656,"函":1657,"過":1658,"凯":1659,"弯":1660,"魂":1661,"御":1662,"烂":1663,"仁":1664,"喊":1665,"拆":1666,"牵":1667,"仙":1668,"幻":1669,"炸":1670,"彼":1671,"柱":1672,"皆":1673,"眠":1674,"矛":1675,"缝":1676,"臺":1677,"谋":1678,"東":1679,"猜":1680,"番":1681,"瘤":1682,"丢":1683,"衰":1684,"牢":1685,"莉":1686,"夺":1687,"庙":1688,"狠":1689,"晰":1690,"缴":1691,"乃":1692,"尘":1693,"叹":1694,"挖":1695,"殿":1696,"穷":1697,"吐":1698,"截":1699,"甜":1700,"箭":1701,"內":1702,"坛":1703,"宾":1704,"忠":1705,"悦":1706,"柏":1707,"猛":1708,"粮":1709,"嘉":1710,"盆":1711,"脾":1712,"轨":1713,"杰":1714,"盒":1715,"迪":1716,"抛":1717,"抬":1718,"灣":1719,"進":1720,"恰":1721,"疏":1722,"夹":1723,"煤":1724,"蒸":1725,"辞":1726,"纤":1727,"郑":1728,"悟":1729,"稀":1730,"删":1731,"颈":1732,"赋":1733,"枪":1734,"勃":1735,"崇":1736,"宏":1737,"瞬":1738,"菲":1739,"鼠":1740,"匹":1741,"數":1742,"柳":1743,"捕":1744,"糊":1745,"豪":1746,"轴":1747,"驻":1748,"役":1749,"搬":1750,"杜":1751,"當":1752,"疯":1753,"惨":1754,"浙":1755,"纵":1756,"捷":1757,"腔":1758,"井":1759,"姿":1760,"悠":1761,"椅":1762,"機":1763,"義":1764,"長":1765,"弥":1766,"晨":1767,"涵":1768,"粘":1769,"奉":1770,"铜":1771,"沒":1772,"腺":1773,"員":1774,"仰":1775,"燕":1776,"牧":1777,"莱":1778,"丈":1779,"渡":1780,"穴":1781,"栏":1782,"辨":1783,"斑":1784,"沈":1785,"寺":1786,"滋":1787,"華":1788,"挤":1789,"滚":1790,"寸":1791,"旨":1792,"踪":1793,"疲":1794,"姻":1795,"惑":1796,"押":1797,"挡":1798,"惧":1799,"辉":1800,"飘":1801,"奈":1802,"徽":1803,"曹":1804,"诱":1805,"饱":1806,"晋":1807,"谐":1808,"垂":1809,"艰":1810,"逆":1811,"锻":1812,"宅":1813,"間":1814,"溪":1815,"莎":1816,"邻":1817,"戰":1818,"巡":1819,"種":1820,"膀":1821,"抚":1822,"肚":1823,"邦":1824,"骂":1825,"恨":1826,"蜜":1827,"荒":1828,"剪":1829,"將":1830,"履":1831,"硕":1832,"咬":1833,"關":1834,"炉":1835,"雾":1836,"昌":1837,"拳":1838,"浸":1839,"涌":1840,"串":1841,"悬":1842,"郎":1843,"吓":1844,"悄":1845,"昆":1846,"刊":1847,"薪":1848,"仲":1849,"肃":1850,"袭":1851,"扭":1852,"撒":1853,"唇":1854,"谨":1855,"卧":1856,"杭":1857,"羽":1858,"熊":1859,"皱":1860,"柜":1861,"黨":1862,"齿":1863,"奴":1864,"實":1865,"撤":1866,"氢":1867,"钻":1868,"兽":1869,"遥":1870,"阔":1871,"亿":1872,"佩":1873,"侍":1874,"傻":1875,"厌":1876,"抄":1877,"毁":1878,"绑":1879,"啡":1880,"猎":1881,"黎":1882,"呆":1883,"葡":1884,"醉":1885,"闷":1886,"怨":1887,"權":1888,"魏":1889,"妮":1890,"晒":1891,"泄":1892,"扇":1893,"浩":1894,"咖":1895,"揭":1896,"斜":1897,"裴":1898,"慰":1899,"電":1900,"肖":1901,"抹":1902,"壤":1903,"聪":1904,"胖":1905,"埋":1906,"屈":1907,"漠":1908,"婴":1909,"認":1910,"厨":1911,"披":1912,"疆":1913,"碗":1914,"芯":1915,"骤":1916,"冻":1917,"叠":1918,"慈":1919,"瓷":1920,"盯":1921,"萄":1922,"辖":1923,"幽":1924,"胀":1925,"绳":1926,"亞":1927,"嫌":1928,"慎":1929,"瘦":1930,"躲":1931,"霸":1932,"汁":1933,"袖":1934,"辩":1935,"琼":1936,"砖":1937,"袁":1938,"玛":1939,"苹":1940,"躺":1941,"伐":1942,"卓":1943,"墓":1944,"淋":1945,"莲":1946,"婉":1947,"挣":1948,"携":1949,"棋":1950,"芳":1951,"丧":1952,"們":1953,"資":1954,"辣":1955,"耀":1956,"埃":1957,"恼":1958,"敲":1959,"棒":1960,"臂":1961,"叛":1962,"抖":1963,"贺":1964,"盗":1965,"胁":1966,"滤":1967,"灌":1968,"傅":1969,"別":1970,"掩":1971,"苍":1972,"暑":1973,"赫":1974,"锡":1975,"凤":1976,"則":1977,"呵":1978,"愤":1979,"總":1980,"桂":1981,"吊":1982,"裤":1983,"诈":1984,"馈":1985,"渗":1986,"邓":1987,"堪":1988,"懒":1989,"葛":1990,"锦":1991,"欺":1992,"悔":1993,"扔":1994,"拨":1995,"浆":1996,"翼":1997,"聯":1998,"芬":1999,"運":2000,"俱":2001,"吵":2002,"扮":2003,"欠":2004,"罩":2005,"鸣":2006,"脆":2007,"陵":2008,"類":2009,"場":2010,"堵":2011,"掘":2012,"洒":2013,"叙":2014,"烤":2015,"筋":2016,"議":2017,"讼":2018,"領":2019,"叉":2020,"浑":2021,"螺":2022,"論":2023,"姨":2024,"摘":2025,"痕":2026,"匀":2027,"卵":2028,"慕":2029,"侯":2030,"燥":2031,"兩":2032,"坊":2033,"碑":2034,"忌":2035,"旺":2036,"書":2037,"辽":2038,"遮":2039,"诞":2040,"赤":2041,"酷":2042,"劝":2043,"帖":2044,"昏":2045,"祥":2046,"郭":2047,"俩":2048,"傲":2049,"棠":2050,"艳":2051,"囊":2052,"膝":2053,"舌":2054,"儒":2055,"臭":2056,"耕":2057,"蜂":2058,"霍":2059,"戒":2060,"棉":2061,"稱":2062,"钙":2063,"尸":2064,"屁":2065,"弘":2066,"炮":2067,"設":2068,"夷":2069,"妥":2070,"娱":2071,"泌":2072,"硅":2073,"秩":2074,"肪":2075,"凌":2076,"愉":2077,"無":2078,"煮":2079,"盲":2080,"纽":2081,"绵":2082,"帅":2083,"赴":2084,"應":2085,"榜":2086,"爾":2087,"贪":2088,"勾":2089,"峡":2090,"庞":2091,"渴":2092,"計":2093,"廉":2094,"赠":2095,"蔬":2096,"岭":2097,"翠":2098,"術":2099,"魅":2100,"嫁":2101,"阐":2102,"陌":2103,"咳":2104,"醇":2105,"窝":2106,"秒":2107,"傳":2108,"從":2109,"炭":2110,"選":2111,"夸":2112,"組":2113,"笼":2114,"吻":2115,"熬":2116,"碱":2117,"扯":2118,"迈":2119,"坑":2120,"宴":2121,"拾":2122,"柴":2123,"氨":2124,"琳":2125,"孝":2126,"韵":2127,"漆":2128,"巾":2129,"濟":2130,"砂":2131,"芽":2132,"據":2133,"丘":2134,"兔":2135,"梳":2136,"劣":2137,"嫩":2138,"崩":2139,"擅":2140,"氯":2141,"浦":2142,"酶":2143,"唤":2144,"契":2145,"怜":2146,"糕":2147,"結":2148,"耶":2149,"馬":2150,"晕":2151,"焊":2152,"硫":2153,"罢":2154,"廊":2155,"狱":2156,"矩":2157,"裙":2158,"倡":2159,"弦":2160,"滞":2161,"漢":2162,"锐":2163,"饼":2164,"桑":2165,"颇":2166,"慌":2167,"篮":2168,"蕾":2169,"蚀":2170,"隙":2171,"歷":2172,"稻":2173,"羞":2174,"舰":2175,"茫":2176,"斥":2177,"朴":2178,"豫":2179,"隶":2180,"伪":2181,"塘":2182,"宠":2183,"帽":2184,"愁":2185,"祭":2186,"維":2187,"菇":2188,"喻":2189,"珊":2190,"說":2191,"吾":2192,"椎":2193,"腊":2194,"踩":2195,"怖":2196,"辐":2197,"颖":2198,"凑":2199,"滨":2200,"瑟":2201,"詹":2202,"丛":2203,"妆":2204,"浴":2205,"渔":2206,"袍":2207,"寂":2208,"導":2209,"捐":2210,"許":2211,"蹈":2212,"鸦":2213,"诵":2214,"涯":2215,"肢":2216,"芝":2217,"冯":2218,"扑":2219,"柄":2220,"淀":2221,"贤":2222,"泳":2223,"茂":2224,"蛮":2225,"匆":2226,"氣":2227,"變":2228,"霉":2229,"摊":2230,"栽":2231,"溃":2232,"羅":2233,"題":2234,"兹":2235,"凶":2236,"吞":2237,"巷":2238,"粹":2239,"舟":2240,"萌":2241,"哀":2242,"喂":2243,"孟":2244,"溢":2245,"熙":2246,"缠":2247,"衍":2248,"達":2249,"務":2250,"專":2251,"腻":2252,"趁":2253,"辰":2254,"還":2255,"邪":2256,"骄":2257,"嗯":2258,"捧":2259,"栖":2260,"誓":2261,"乾":2262,"宰":2263,"戚":2264,"捉":2265,"沃":2266,"蓄":2267,"喉":2268,"寓":2269,"株":2270,"纲":2271,"颤":2272,"奠":2273,"枢":2274,"瞧":2275,"俊":2276,"敦":2277,"蛇":2278,"摔":2279,"泊":2280,"糟":2281,"逝":2282,"揉":2283,"晃":2284,"丑":2285,"咯":2286,"脊":2287,"阀":2288,"饿":2289,"睁":2290,"蕴":2291,"铝":2292,"爭":2293,"钥":2294,"菩":2295,"裸":2296,"視":2297,"際":2298,"垫":2299,"枯":2300,"渊":2301,"鹅":2302,"亭":2303,"烯":2304,"葬":2305,"陕":2306,"仇":2307,"妨":2308,"姜":2309,"虾":2310,"厦":2311,"岳":2312,"磷":2313,"槽":2314,"煌":2315,"狭":2316,"筛":2317,"罐":2318,"铃":2319,"狮":2320,"蔡":2321,"僵":2322,"胺":2323,"踢":2324,"鹿":2325,"丫":2326,"削":2327,"咋":2328,"壶":2329,"巩":2330,"畏":2331,"砸":2332,"圖":2333,"沐":2334,"浇":2335,"绣":2336,"铸":2337,"戈":2338,"攀":2339,"犬":2340,"芒":2341,"跪":2342,"咽":2343,"妃":2344,"宪":2345,"處":2346,"裕":2347,"赁":2348,"較":2349,"鸭":2350,"點":2351,"凸":2352,"裹":2353,"問":2354,"寨":2355,"廣":2356,"恭":2357,"歧":2358,"逛":2359,"卸":2360,"娜":2361,"毅":2362,"涛":2363,"澡":2364,"痴":2365,"膨":2366,"丙":2367,"強":2368,"篷":2369,"蜡":2370,"該":2371,"卑":2372,"惩":2373,"翅":2374,"衬":2375,"響":2376,"帕":2377,"汪":2378,"玄":2379,"祸":2380,"藤":2381,"厕":2382,"嘲":2383,"巢":2384,"滩":2385,"脖":2386,"質":2387,"郡":2388,"卦":2389,"嵌":2390,"扁":2391,"拌":2392,"桶":2393,"辱":2394,"钠":2395,"颠":2396,"仗":2397,"兑":2398,"刮":2399,"募":2400,"浏":2401,"虹":2402,"衔":2403,"趟":2404,"逸":2405,"钮":2406,"弓":2407,"搏":2408,"歐":2409,"膏":2410,"葱":2411,"蒂":2412,"陸":2413,"撕":2414,"牲":2415,"猴":2416,"蓬":2417,"帘":2418,"決":2419,"調":2420,"劫":2421,"棵":2422,"矮":2423,"筒":2424,"萝":2425,"佣":2426,"剖":2427,"剥":2428,"吟":2429,"沾":2430,"纱":2431,"蘭":2432,"轰":2433,"雇":2434,"碧":2435,"腕":2436,"舉":2437,"钉":2438,"颁":2439,"丸":2440,"匠":2441,"湘":2442,"澈":2443,"瑰":2444,"逢":2445,"霜":2446,"卜":2447,"掏":2448,"昭":2449,"沫":2450,"衫":2451,"髓":2452,"喘":2453,"帆":2454,"黏":2455,"樂":2456,"烫":2457,"盼":2458,"窄":2459,"舅":2460,"霞":2461,"勉":2462,"宵":2463,"屬":2464,"斩":2465,"穆":2466,"衷":2467,"規":2468,"韦":2469,"鸿":2470,"僧":2471,"卿":2472,"噪":2473,"挫":2474,"擎":2475,"氮":2476,"灸":2477,"痒":2478,"砍":2479,"羡":2480,"彰":2481,"橡":2482,"撰":2483,"藻":2484,"酱":2485,"饲":2486,"價":2487,"憾":2488,"蔽":2489,"谎":2490,"屠":2491,"缸":2492,"耍":2493,"蝶":2494,"觀":2495,"锈":2496,"張":2497,"曝":2498,"棚":2499,"谊":2500,"躁":2501,"钓":2502,"钩":2503,"靖":2504,"眾":2505,"绒":2506,"搅":2507,"旱":2508,"泼":2509,"窃":2510,"茎":2511,"茨":2512,"酬":2513,"阁":2514,"咪":2515,"拦":2516,"痘":2517,"蘑":2518,"蚁":2519,"锂":2520,"侦":2521,"構":2522,"玫":2523,"遣":2524,"驰":2525,"仆":2526,"創":2527,"碌":2528,"芦":2529,"蠢":2530,"赐":2531,"鞭":2532,"龟":2533,"嘱":2534,"團":2535,"庐":2536,"慨":2537,"淮":2538,"纺":2539,"酯":2540,"隨":2541,"愧":2542,"枚":2543,"桩":2544,"泵":2545,"遂":2546,"卢":2547,"島":2548,"祈":2549,"續":2550,"蚊":2551,"褐":2552,"酿":2553,"伞":2554,"捏":2555,"椒":2556,"溜":2557,"竭":2558,"艘":2559,"話":2560,"雀":2561,"刹":2562,"劇":2563,"嗽":2564,"捞":2565,"枕":2566,"禅":2567,"肆":2568,"萧":2569,"拘":2570,"熔":2571,"竖":2572,"級":2573,"翔":2574,"蘇":2575,"逊":2576,"弊":2577,"滥":2578,"耻":2579,"見":2580,"姚":2581,"岂":2582,"柯":2583,"涩":2584,"烛":2585,"祷":2586,"菊":2587,"離":2588,"咸":2589,"坪":2590,"棕":2591,"茄":2592,"荆":2593,"侣":2594,"兆":2595,"吕":2596,"弗":2597,"證":2598,"奢":2599,"尬":2600,"愚":2601,"焰":2602,"粥":2603,"約":2604,"記":2605,"贩":2606,"報":2607,"條":2608,"牺":2609,"谭":2610,"贾":2611,"醋":2612,"钦":2613,"館":2614,"惹":2615,"甩":2616,"瞪":2617,"俺":2618,"孫":2619,"拐":2620,"栋":2621,"渣":2622,"勿":2623,"娇":2624,"尴":2625,"畜":2626,"笛":2627,"辟":2628,"侨":2629,"匙":2630,"坝":2631,"捆":2632,"灿":2633,"甫":2634,"翡":2635,"鼎":2636,"乖":2637,"媳":2638,"捡":2639,"敷":2640,"獲":2641,"瓣":2642,"絮":2643,"闯":2644,"師":2645,"曦":2646,"茅":2647,"車":2648,"铭":2649,"隊":2650,"鹰":2651,"哇":2652,"挽":2653,"掀":2654,"歇":2655,"泻":2656,"煎":2657,"缕":2658,"蚂":2659,"掠":2660,"獨":2661,"舆":2662,"塌":2663,"婷":2664,"庸":2665,"栓":2666,"極":2667,"澜":2668,"谦":2669,"韧":2670,"參":2671,"挪":2672,"盔":2673,"纬":2674,"讽":2675,"谣":2676,"歪":2677,"硝":2678,"贬":2679,"門":2680,"風":2681,"垒":2682,"寫":2683,"笨":2684,"酵":2685,"崖":2686,"畔":2687,"興":2688,"趴":2689,"伽":2690,"勢":2691,"帶":2692,"彭":2693,"復":2694,"拱":2695,"杏":2696,"瞎":2697,"讶":2698,"蹲":2699,"锤":2700,"顽":2701,"吁":2702,"哑":2703,"朕":2704,"杠":2705,"擊":2706,"晴":2707,"棍":2708,"胚":2709,"坠":2710,"斤":2711,"淹":2712,"給":2713,"轉":2714,"陽":2715,"馨":2716,"嗓":2717,"拢":2718,"沸":2719,"瑜":2720,"缆":2721,"颊":2722,"骚":2723,"魄":2724,"係":2725,"凹":2726,"劃":2727,"惫":2728,"绽":2729,"藩":2730,"逗":2731,"槛":2732,"瞒":2733,"織":2734,"衙":2735,"谅":2736,"坟":2737,"媚":2738,"挨":2739,"爪":2740,"粤":2741,"舱":2742,"藉":2743,"躯":2744,"郊":2745,"厢":2746,"單":2747,"惕":2748,"潘":2749,"痰":2750,"眯":2751,"翁":2752,"苯":2753,"識":2754,"酰":2755,"驳":2756,"娶":2757,"拂":2758,"敞":2759,"樱":2760,"汛":2761,"眸":2762,"矫":2763,"缀":2764,"詩":2765,"叮":2766,"啤":2767,"坎":2768,"奸":2769,"镀":2770,"搁":2771,"標":2772,"樣":2773,"橙":2774,"玲":2775,"轿":2776,"勘":2777,"匕":2778,"峻":2779,"斧":2780,"熏":2781,"琐":2782,"歉":2783,"沽":2784,"烘":2785,"琪":2786,"畫":2787,"睹":2788,"耿":2789,"莓":2790,"裔":2791,"詞":2792,"辙":2793,"確":2794,"線":2795,"藝":2796,"虐":2797,"醛":2798,"钾":2799,"宛":2800,"崔":2801,"枣":2802,"梨":2803,"沧":2804,"肛":2805,"陀":2806,"鹤":2807,"兜":2808,"匪":2809,"弧":2810,"泣":2811,"涡":2812,"淫":2813,"疹":2814,"紀":2815,"網":2816,"艇":2817,"親":2818,"評":2819,"毯":2820,"澹":2821,"陳":2822,"佬":2823,"垄":2824,"屑":2825,"採":2826,"撼":2827,"杉":2828,"梭":2829,"甸":2830,"畴":2831,"矣":2832,"罕":2833,"萎":2834,"薛":2835,"鄂":2836,"醫":2837,"铅":2838,"雌":2839,"咐":2840,"職":2841,"蔓":2842,"蜀":2843,"蟹":2844,"嫂":2845,"懈":2846,"稚":2847,"萬":2848,"製":2849,"哄":2850,"屯":2851,"溯":2852,"筷":2853,"納":2854,"莹":2855,"贼":2856,"連":2857,"闸":2858,"顯":2859,"丨":2860,"倦":2861,"寞":2862,"寡":2863,"巫":2864,"帜":2865,"彪":2866,"抒":2867,"汰":2868,"蛛":2869,"蹭":2870,"辦":2871,"饶":2872,"佐":2873,"匈":2874,"協":2875,"喧":2876,"妄":2877,"屡":2878,"惟":2879,"玮":2880,"靶":2881,"饥":2882,"侠":2883,"冥":2884,"昔":2885,"绎":2886,"莞":2887,"邊":2888,"镶":2889,"戳":2890,"睿":2891,"绸":2892,"缚":2893,"膊":2894,"贞":2895,"吼":2896,"嚴":2897,"園":2898,"壓":2899,"寧":2900,"扛":2901,"梗":2902,"潭":2903,"耸":2904,"聲":2905,"臀":2906,"農":2907,"鹏":2908,"俯":2909,"備":2910,"喀":2911,"杖":2912,"耽":2913,"雖":2914,"寝":2915,"搓":2916,"绚":2917,"胳":2918,"項":2919,"預":2920,"倚":2921,"劉":2922,"哗":2923,"怡":2924,"態":2925,"浊":2926,"灼":2927,"祀":2928,"翘":2929,"膳":2930,"谜":2931,"饵":2932,"刃":2933,"崛":2934,"琢":2935,"禽":2936,"蕉":2937,"遊":2938,"隋":2939,"兮":2940,"唿":2941,"嘎":2942,"坤":2943,"姬":2944,"廓":2945,"悍":2946,"拇":2947,"準":2948,"爹":2949,"狐":2950,"環":2951,"缅":2952,"護":2953,"锌":2954,"颅":2955,"咙":2956,"恳":2957,"愣":2958,"戲":2959,"栈":2960,"測":2961,"異":2962,"眨":2963,"築":2964,"終":2965,"翰":2966,"垢":2967,"拷":2968,"暮":2969,"粪":2970,"荧":2971,"蒜":2972,"蝴":2973,"諸":2974,"錄":2975,"仕":2976,"呗":2977,"嗅":2978,"尹":2979,"怔":2980,"挠":2981,"沥":2982,"瞥":2983,"磕":2984,"糙":2985,"繼":2986,"胱":2987,"賽":2988,"辜":2989,"颂":2990,"鸽":2991,"冈":2992,"咒":2993,"妍":2994,"柠":2995,"柿":2996,"烷":2997,"烹":2998,"範":2999,"雍":3000,"冶":3001,"墅":3002,"妓":3003,"姝":3004,"戎":3005,"敛":3006,"疮":3007,"秉":3008,"積":3009,"仑":3010,"佈":3011,"執":3012,"妖":3013,"溺":3014,"焚":3015,"節":3016,"籽":3017,"薯":3018,"蛙":3019,"迭":3020,"鄧":3021,"冤":3022,"凰":3023,"卉":3024,"孢":3025,"瞻":3026,"舔":3027,"芭":3028,"蓉":3029,"讓":3030,"韶":3031,"僅":3032,"哺":3033,"嚼":3034,"栗":3035,"熄":3036,"窑":3037,"奧":3038,"斷":3039,"旷":3040,"澤":3041,"碟":3042,"蝇":3043,"陋":3044,"驗":3045,"冀":3046,"凄":3047,"卒":3048,"灶":3049,"穗":3050,"縣":3051,"苑":3052,"镁":3053,"佔":3054,"侬":3055,"倘":3056,"厥":3057,"呜":3058,"夠":3059,"幾":3060,"擁":3061,"昧":3062,"橘":3063,"湛":3064,"烁":3065,"焕":3066,"瞄":3067,"聖":3068,"阑":3069,"骼":3070,"傍":3071,"喃":3072,"嚣":3073,"戶":3074,"拯":3075,"拽":3076,"檬":3077,"潇":3078,"狀":3079,"責":3080,"遺":3081,"釉":3082,"叨":3083,"嘿":3084,"殷":3085,"淤":3086,"營":3087,"瘫":3088,"稽":3089,"绞":3090,"蜘":3091,"蠕":3092,"酮":3093,"階":3094,"隧":3095,"乞":3096,"伺":3097,"凳":3098,"惶":3099,"敗":3100,"札":3101,"棘":3102,"楷":3103,"氟":3104,"沁":3105,"沛":3106,"洽":3107,"禄":3108,"稣":3109,"篆":3110,"胰":3111,"苛":3112,"逮":3113,"鑫":3114,"钞":3115,"吏":3116,"寥":3117,"弩":3118,"扒":3119,"棱":3120,"歹":3121,"沦":3122,"況":3123,"畸":3124,"矢":3125,"薇":3126,"號":3127,"蹦":3128,"驴":3129,"黃":3130,"呕":3131,"挚":3132,"擴":3133,"斌":3134,"禹":3135,"绷":3136,"讳":3137,"诠":3138,"陡":3139,"頭":3140,"勺":3141,"咕":3142,"垮":3143,"妒":3144,"拎":3145,"沪":3146,"淌":3147,"澄":3148,"窥":3149,"編":3150,"習":3151,"葵":3152,"薩":3153,"袜":3154,"觅":3155,"軟":3156,"鄙":3157,"鐵":3158,"钛":3159,"雙":3160,"馅":3161,"卻":3162,"哼":3163,"揣":3164,"摧":3165,"氓":3166,"煞":3167,"筝":3168,"腑":3169,"驼":3170,"魁":3171,"龍":3172,"剔":3173,"啪":3174,"妊":3175,"曰":3176,"癫":3177,"祛":3178,"簡":3179,"腥":3180,"請":3181,"負":3182,"費":3183,"闺":3184,"靴":3185,"勋":3186,"厘":3187,"娠":3188,"掺":3189,"淑":3190,"盏":3191,"聆":3192,"蒲":3193,"裝":3194,"蹄":3195,"僚":3196,"咏":3197,"囚":3198,"埔":3199,"憋":3200,"捣":3201,"攒":3202,"漸":3203,"狄":3204,"瘾":3205,"诀":3206,"遠":3207,"邹":3208,"鳞":3209,"哨":3210,"孵":3211,"愛":3212,"揽":3213,"斋":3214,"桐":3215,"汲":3216,"盡":3217,"肘":3218,"講":3219,"诡":3220,"咧":3221,"喇":3222,"屿":3223,"庚":3224,"徵":3225,"渍":3226,"炫":3227,"肋":3228,"肽":3229,"膛":3230,"財":3231,"黯":3232,"俘":3233,"俭":3234,"吩":3235,"廖":3236,"殺":3237,"渲":3238,"礁":3239,"窍":3240,"苔":3241,"诏":3242,"跋":3243,"饺":3244,"侄":3245,"僻":3246,"兒":3247,"唾":3248,"堤":3249,"拙":3250,"旭":3251,"暨":3252,"璐":3253,"睐":3254,"瞳":3255,"紊":3256,"芜":3257,"贮":3258,"赎":3259,"轩":3260,"铲":3261,"锥":3262,"亥":3263,"凿":3264,"呐":3265,"哮":3266,"圍":3267,"嫉":3268,"屎":3269,"戟":3270,"漓":3271,"疡":3272,"瘟":3273,"磊":3274,"缔":3275,"臨":3276,"蚕":3277,"豹":3278,"遷":3279,"阱":3280,"難":3281,"倪":3282,"墩":3283,"搂":3284,"栅":3285,"滿":3286,"熱":3287,"疤":3288,"磅":3289,"絕":3290,"聞":3291,"衛":3292,"趾":3293,"須":3294,"黛":3295,"哟":3296,"彦":3297,"捂":3298,"昼":3299,"桨":3300,"椭":3301,"炖":3302,"牡":3303,"砌":3304,"礎":3305,"芹":3306,"蕊":3307,"迦":3308,"酚":3309,"酥":3310,"驿":3311,"黔":3312,"劈":3313,"吱":3314,"婪":3315,"層":3316,"弈":3317,"戀":3318,"洼":3319,"竿":3320,"肇":3321,"腦":3322,"裡":3323,"豁":3324,"購":3325,"贱":3326,"邵":3327,"镍":3328,"颌":3329,"侈":3330,"侏":3331,"嘶":3332,"姥":3333,"弛":3334,"擔":3335,"榴":3336,"獎":3337,"疱":3338,"紅":3339,"缐":3340,"舶":3341,"葫":3342,"豐":3343,"輯":3344,"輸":3345,"邑":3346,"飙":3347,"匿":3348,"啃":3349,"崭":3350,"恍":3351,"梢":3352,"涤":3353,"溅":3354,"滔":3355,"潍":3356,"牟":3357,"簧":3358,"绊":3359,"貨":3360,"酪":3361,"釋":3362,"鞍":3363,"堕":3364,"尉":3365,"懵":3366,"旬":3367,"沮":3368,"減":3369,"渝":3370,"瘀":3371,"祠":3372,"腋":3373,"舊":3374,"荫":3375,"诫":3376,"钝":3377,"侃":3378,"噩":3379,"噬":3380,"堰":3381,"怯":3382,"拧":3383,"朔":3384,"檐":3385,"烃":3386,"狙":3387,"碾":3388,"虞":3389,"衝":3390,"褪":3391,"贿":3392,"飛":3393,"佑":3394,"啸":3395,"巅":3396,"暇":3397,"枫":3398,"淇":3399,"溫":3400,"炽":3401,"祁":3402,"窖":3403,"簇":3404,"細":3405,"萃":3406,"訊":3407,"討":3408,"諾":3409,"韓":3410,"亩":3411,"侮":3412,"匡":3413,"娩":3414,"枉":3415,"榨":3416,"淆":3417,"渤":3418,"焉":3419,"眶":3420,"稠":3421,"窦":3422,"耦":3423,"酌":3424,"險":3425,"骏":3426,"麟":3427,"乒":3428,"優":3429,"暄":3430,"朽":3431,"榆":3432,"洱":3433,"渺":3434,"瀑":3435,"烙":3436,"眷":3437,"糯":3438,"襄":3439,"銀":3440,"钧":3441,"锯":3442,"雁":3443,"雲":3444,"餘":3445,"厄":3446,"嗡":3447,"嬉":3448,"峭":3449,"悼":3450,"惰":3451,"拣":3452,"捅":3453,"澎":3454,"試":3455,"踝":3456,"迄":3457,"阜":3458,"雏":3459,"鹃":3460,"亢":3461,"囤":3462,"墟":3463,"壹":3464,"嫔":3465,"彬":3466,"柑":3467,"梧":3468,"汝":3469,"滅":3470,"濒":3471,"皂":3472,"脐":3473,"脓":3474,"蘸":3475,"轧":3476,"辫":3477,"週":3478,"適":3479,"邱":3480,"铐":3481,"養":3482,"骇":3483,"鮮":3484,"麼":3485,"寅":3486,"拭":3487,"摹":3488,"晌":3489,"狸":3490,"禾":3491,"聂":3492,"談":3493,"赣":3494,"躬":3495,"儀":3496,"勞":3497,"吨":3498,"嚎":3499,"娟":3500,"嬷":3501,"幢":3502,"懦":3503,"懿":3504,"挟":3505,"榄":3506,"玖":3507,"翩":3508,"倩":3509,"兢":3510,"叽":3511,"嘟":3512,"恕":3513,"撇":3514,"梵":3515,"榮":3516,"橄":3517,"歸":3518,"汹":3519,"渭":3520,"瑚":3521,"瑶":3522,"痹":3523,"瞭":3524,"硒":3525,"碼":3526,"磺":3527,"秃":3528,"窜":3529,"乍":3530,"倔":3531,"坯":3532,"婿":3533,"審":3534,"帷":3535,"炬":3536,"犁":3537,"窟":3538,"篡":3539,"載":3540,"轼":3541,"鞘":3542,"鲤":3543,"亨":3544,"俞":3545,"嘻":3546,"埠":3547,"帧":3548,"徙":3549,"怠":3550,"曙":3551,"煲":3552,"璋":3553,"胤":3554,"貝":3555,"鄉":3556,"針":3557,"銷":3558,"靈":3559,"願":3560,"馏":3561,"馒":3562,"骆":3563,"鲸":3564,"麗":3565,"乓":3566,"倫":3567,"凛":3568,"厮":3569,"嚷":3570,"孜":3571,"換":3572,"晦":3573,"桓":3574,"棺":3575,"瞩":3576,"禀":3577,"禧":3578,"禮":3579,"缤":3580,"苷":3581,"蔚":3582,"虔":3583,"襟":3584,"譯":3585,"輕":3586,"闽":3587,"靡":3588,"兀":3589,"叭":3590,"呃":3591,"宮":3592,"廢":3593,"桔":3594,"楔":3595,"檀":3596,"沌":3597,"溉":3598,"漱":3599,"甄":3600,"痫":3601,"磋":3602,"苇":3603,"谬":3604,"遏":3605,"锚":3606,"颓":3607,"驯":3608,"卤":3609,"唠":3610,"幣":3611,"幹":3612,"抠":3613,"挛":3614,"揪":3615,"朦":3616,"璧":3617,"笋":3618,"羲":3619,"胧":3620,"芷":3621,"荔":3622,"藥":3623,"虏":3624,"複":3625,"鎮":3626,"雜":3627,"靓":3628,"韭":3629,"頓":3630,"啼":3631,"嗣":3632,"嘘":3633,"娥":3634,"岱":3635,"庇":3636,"徊":3637,"徘":3638,"憧":3639,"掐":3640,"柬":3641,"椰":3642,"沼":3643,"淬":3644,"淳":3645,"疚":3646,"粟":3647,"荟":3648,"莽":3649,"蔑":3650,"螃":3651,"貿":3652,"蹬":3653,"駐":3654,"骸":3655,"魯":3656,"佼":3657,"俏":3658,"冗":3659,"唑":3660,"憲":3661,"晖":3662,"炊":3663,"炳":3664,"盎":3665,"祺":3666,"竣":3667,"簿":3668,"芸":3669,"苟":3670,"谴":3671,"買":3672,"霖":3673,"傾":3674,"卯":3675,"嗦":3676,"妞":3677,"妾":3678,"廠":3679,"恪":3680,"扼":3681,"汞":3682,"涅":3683,"睦":3684,"窒":3685,"觸":3686,"讀":3687,"賓":3688,"趙":3689,"饪":3690,"剃":3691,"呻":3692,"尧":3693,"悸":3694,"惮":3695,"憎":3696,"憬":3697,"晾":3698,"檢":3699,"殴":3700,"琅":3701,"琉":3702,"痉":3703,"臘":3704,"茸":3705,"莺":3706,"蒿":3707,"藕":3708,"蜗":3709,"蝉":3710,"讥":3711,"蹊":3712,"霾":3713,"鞠":3714,"亂":3715,"呛":3716,"咀":3717,"寇":3718,"峪":3719,"巍":3720,"慑":3721,"抿":3722,"掷":3723,"樓":3724,"氰":3725,"爲":3726,"狩":3727,"療":3728,"皖":3729,"監":3730,"盤":3731,"稼":3732,"穩":3733,"笃":3734,"茉":3735,"課":3736,"谍":3737,"钳":3738,"凋":3739,"叩":3740,"坷":3741,"垦":3742,"宦":3743,"屉":3744,"庫":3745,"庶":3746,"撩":3747,"攘":3748,"楠":3749,"氫":3750,"汕":3751,"疵":3752,"睫":3753,"礦":3754,"競":3755,"聽":3756,"肴":3757,"芙":3758,"裏":3759,"裳":3760,"訂":3761,"輪":3762,"锭":3763,"丞":3764,"儘":3765,"勝":3766,"坞":3767,"嫣":3768,"彤":3769,"惺":3770,"慷":3771,"擇":3772,"栩":3773,"橱":3774,"毗":3775,"汩":3776,"漉":3777,"瀚":3778,"焙":3779,"犀":3780,"瑕":3781,"疙":3782,"碘":3783,"窘":3784,"笠":3785,"緊":3786,"耘":3787,"腌":3788,"茁":3789,"菱":3790,"補":3791,"邃":3792,"邯":3793,"雯":3794,"骁":3795,"鲍":3796,"傷":3797,"唬":3798,"喳":3799,"堅":3800,"嫡":3801,"敖":3802,"杞":3803,"槐":3804,"毙":3805,"沂":3806,"狡":3807,"紙":3808,"羟":3809,"膑":3810,"葉":3811,"谛":3812,"貴":3813,"赦":3814,"閩":3815,"颐":3816,"驭":3817,"侥":3818,"吳":3819,"啟":3820,"嘀":3821,"奪":3822,"岔":3823,"崎":3824,"崙":3825,"彗":3826,"恬":3827,"惭":3828,"扉":3829,"捻":3830,"揍":3831,"撬":3832,"斟":3833,"暾":3834,"曳":3835,"柚":3836,"榻":3837,"猝":3838,"獻":3839,"痔":3840,"瘩":3841,"砺":3842,"簸":3843,"缰":3844,"蛾":3845,"蜒":3846,"蜿":3847,"褶":3848,"赃":3849,"赘":3850,"钎":3851,"镯":3852,"陇":3853,"霆":3854,"傣":3855,"勐":3856,"匯":3857,"唧":3858,"幂":3859,"悯":3860,"慮":3861,"戊":3862,"摒":3863,"晉":3864,"滇":3865,"猥":3866,"眩":3867,"禺":3868,"绥":3869,"绰":3870,"羁":3871,"脫":3872,"藍":3873,"蛤":3874,"蜕":3875,"诲":3876,"跷":3877,"辗":3878,"铠":3879,"鸠":3880,"鹽":3881,"亵":3882,"俨":3883,"倉":3884,"冉":3885,"刁":3886,"垣":3887,"夯":3888,"奎":3889,"寐":3890,"崽":3891,"揮":3892,"攥":3893,"枸":3894,"汶":3895,"猿":3896,"瘙":3897,"眺":3898,"秆":3899,"秽":3900,"紛":3901,"蔷":3902,"誌":3903,"譬":3904,"逍":3905,"遁":3906,"钵":3907,"霄":3908,"鳄":3909,"丐":3910,"咆":3911,"啰":3912,"峨":3913,"彙":3914,"忡":3915,"愕":3916,"懷":3917,"掰":3918,"樊":3919,"溥":3920,"烏":3921,"猕":3922,"琶":3923,"瞰":3924,"纂":3925,"聋":3926,"茧":3927,"茵":3928,"豚":3929,"軌":3930,"釜":3931,"鍵":3932,"額":3933,"鬣":3934,"伶":3935,"冽":3936,"吮":3937,"嘈":3938,"噢":3939,"屆":3940,"彝":3941,"惬":3942,"攸":3943,"棄":3944,"涕":3945,"淅":3946,"琦":3947,"矗":3948,"矜":3949,"矶":3950,"縮":3951,"缮":3952,"舜":3953,"菠":3954,"覺":3955,"誤":3956,"謂":3957,"賣":3958,"趨":3959,"跛":3960,"迸":3961,"鄭":3962,"顷":3963,"鬥":3964,"鹦":3965,"龈":3966,"匣":3967,"吝":3968,"咫":3969,"啜":3970,"喔":3971,"圭":3972,"壬":3973,"娅":3974,"恆":3975,"悴":3976,"惘":3977,"慶":3978,"憔":3979,"抉":3980,"捍":3981,"昕":3982,"梓":3983,"楊":3984,"歡":3985,"沓":3986,"漳":3987,"漾":3988,"琵":3989,"璀":3990,"甥":3991,"瞅":3992,"筆":3993,"绅":3994,"缭":3995,"萤":3996,"蜷":3997,"衅":3998,"袱":3999,"诧":4000,"邸":4001,"酉":4002,"铂":4003,"铆":4004,"铮":4005,"锰":4006,"阮":4007,"髦":4008,"併":4009,"哉":4010,"哎":4011,"嗜":4012,"嗤":4013,"圃":4014,"壞":4015,"奄":4016,"孚":4017,"尋":4018,"弑":4019,"捋":4020,"搐":4021,"敵":4022,"斐":4023,"晤":4024,"椿":4025,"楂":4026,"湃":4027,"滕":4028,"濮":4029,"疣":4030,"癣":4031,"砚":4032,"秤":4033,"簽":4034,"胯":4035,"脈":4036,"苓":4037,"莊":4038,"袅":4039,"诅":4040,"诣":4041,"輝":4042,"辄":4043,"遐":4044,"铬":4045,"锣":4046,"顧":4047,"髋":4048,"鬓":4049,"鳖":4050,"龚":4051,"冕":4052,"匮":4053,"哩":4054,"奕":4055,"娴":4056,"庵":4057,"彈":4058,"忱":4059,"怅":4060,"擒":4061,"泸":4062,"炙":4063,"煳":4064,"珀":4065,"珑":4066,"璨":4067,"痪":4068,"癖":4069,"秸":4070,"純":4071,"缉":4072,"肮":4073,"脯":4074,"臻":4075,"萊":4076,"葩":4077,"蔼":4078,"訓":4079,"貢":4080,"轄":4081,"辭":4082,"違":4083,"郝":4084,"酝":4085,"醚":4086,"隅":4087,"順":4088,"麓":4089,"匾":4090,"叼":4091,"吭":4092,"囱":4093,"姊":4094,"孪":4095,"寶":4096,"峙":4097,"彷":4098,"悖":4099,"憨":4100,"棣":4101,"氦":4102,"泗":4103,"涟":4104,"涧":4105,"涸":4106,"湄":4107,"潢":4108,"烬":4109,"猩":4110,"瓯":4111,"癸":4112,"皓":4113,"穹":4114,"緣":4115,"羌":4116,"翟":4117,"芥":4118,"茜":4119,"褒":4120,"讷":4121,"谆":4122,"谏":4123,"谧":4124,"軸":4125,"铛":4126,"锖":4127,"阈":4128,"隘":4129,"頡":4130,"鹉":4131,"亟":4132,"側":4133,"刨":4134,"剿":4135,"喋":4136,"夭":4137,"妩":4138,"嫖":4139,"孽":4140,"幺":4141,"忐":4142,"忑":4143,"惋":4144,"惡":4145,"惦":4146,"扳":4147,"昊":4148,"汀":4149,"熵":4150,"熹":4151,"痊":4152,"稅":4153,"紹":4154,"緩":4155,"練":4156,"纶":4157,"缎":4158,"羹":4159,"茬":4160,"莆":4161,"蔣":4162,"觑":4163,"镖":4164,"阙":4165,"陰":4166,"頻":4167,"颍":4168,"鲨":4169,"鳅":4170,"鸥":4171,"鹊":4172,"佝":4173,"倏":4174,"儲":4175,"剌":4176,"呱":4177,"咄":4178,"宸":4179,"巳":4180,"恤":4181,"戾":4182,"扦":4183,"挝":4184,"捶":4185,"昱":4186,"楞":4187,"榕":4188,"毡":4189,"涝":4190,"溴":4191,"濡":4192,"砧":4193,"粼":4194,"綠":4195,"羯":4196,"荀":4197,"蝎":4198,"螨":4199,"褚":4200,"褥":4201,"迩":4202,"錯":4203,"鏈":4204,"铎":4205,"闫":4206,"阎":4207,"飾":4208,"麽":4209,"丕":4210,"凱":4211,"厩":4212,"喽":4213,"圓":4214,"壽":4215,"娲":4216,"嬴":4217,"忖":4218,"憩":4219,"損":4220,"敘":4221,"枷":4222,"歼":4223,"毋":4224,"汾":4225,"涓":4226,"潼":4227,"煽":4228,"熠":4229,"猶":4230,"瑛":4231,"瘪":4232,"癜":4233,"睑":4234,"祉":4235,"秧":4236,"笙":4237,"篱":4238,"絡":4239,"缪":4240,"罂":4241,"翱":4242,"腮":4243,"舵":4244,"艮":4245,"芍":4246,"蝠":4247,"襲":4248,"覽":4249,"謀":4250,"貂":4251,"跄":4252,"踉":4253,"踊":4254,"踵":4255,"輔":4256,"迢":4257,"逞":4258,"遨":4259,"邈":4260,"鋰":4261,"隸":4262,"鲫":4263,"齊":4264,"哆":4265,"啄":4266,"嗒":4267,"噗":4268,"垛":4269,"姗":4270,"媲":4271,"弋":4272,"忿":4273,"怂":4274,"掂":4275,"昵":4276,"暧":4277,"曆":4278,"桅":4279,"桉":4280,"槟":4281,"沖":4282,"泓":4283,"泞":4284,"涮":4285,"淄":4286,"漪":4287,"災":4288,"炯":4289,"狈":4290,"畢":4291,"皿":4292,"祟":4293,"粱":4294,"綜":4295,"绢":4296,"绾":4297,"罹":4298,"茹":4299,"荼":4300,"莅":4301,"蕃":4302,"蛀":4303,"蝗":4304,"蟾":4305,"訴":4306,"跚":4307,"跤":4308,"蹒":4309,"遛":4310,"邢":4311,"錢":4312,"钯":4313,"阂":4314,"阉":4315,"馀":4316,"馋":4317,"馍":4318,"骋":4319,"鳍":4320,"鸳":4321,"鹭":4322,"仄":4323,"傀":4324,"冊":4325,"劑":4326,"劾":4327,"噎":4328,"噶":4329,"塊":4330,"娓":4331,"婊":4332,"婶":4333,"嫦":4334,"屹":4335,"斛":4336,"旻":4337,"晔":4338,"樁":4339,"樟":4340,"殆":4341,"烽":4342,"琥":4343,"瑾":4344,"皎":4345,"盧":4346,"眈":4347,"睾":4348,"礴":4349,"祯":4350,"筐":4351,"箍":4352,"籌":4353,"績":4354,"繪":4355,"腈":4356,"芪":4357,"蓓":4358,"蓟":4359,"蔗":4360,"薦":4361,"蟒":4362,"衢":4363,"註":4364,"賞":4365,"踹":4366,"铿":4367,"锵":4368,"镂":4369,"镰":4370,"雹":4371,"靳":4372,"顆":4373,"骡":4374,"鱿":4375,"黝":4376,"偎":4377,"僑":4378,"儡":4379,"冢":4380,"剁":4381,"剛":4382,"匝":4383,"吆":4384,"呤":4385,"咎":4386,"坍":4387,"孰":4388,"宕":4389,"忏":4390,"恃":4391,"恺":4392,"悚":4393,"慵":4394,"憶":4395,"懊":4396,"拈":4397,"撮":4398,"斓":4399,"湮":4400,"滲":4401,"潦":4402,"猾":4403,"瑙":4404,"痣":4405,"睽":4406,"瞠":4407,"稷":4408,"竺":4409,"簌":4410,"粵":4411,"紐":4412,"縱":4413,"绯":4414,"腱":4415,"芋":4416,"菈":4417,"萦":4418,"薰":4419,"藓":4420,"蚝":4421,"螂":4422,"袄":4423,"赂":4424,"跡":4425,"蹑":4426,"迥":4427,"遼":4428,"郸":4429,"酋":4430,"酣":4431,"铵":4432,"陣":4433,"麥":4434,"龐":4435,"亘":4436,"佰":4437,"劍":4438,"啬":4439,"嗑":4440,"嘌":4441,"噜":4442,"娄":4443,"嶼":4444,"帚":4445,"幔":4446,"戍":4447,"戛":4448,"攝":4449,"晏":4450,"桦":4451,"槍":4452,"樵":4453,"檔":4454,"泾":4455,"潺":4456,"炕":4457,"烨":4458,"瓮":4459,"盂":4460,"砷":4461,"祇":4462,"粑":4463,"繞":4464,"胫":4465,"腓":4466,"臃":4467,"荤":4468,"菁":4469,"葆":4470,"蛰":4471,"蜥":4472,"訪":4473,"诬":4474,"賴":4475,"邏":4476,"钴":4477,"隱":4478,"驅":4479,"髻":4480,"鬃":4481,"鸯":4482,"麋":4483,"勵":4484,"坂":4485,"垠":4486,"妲":4487,"婦":4488,"岐":4489,"峽":4490,"幫":4491,"弼":4492,"忻":4493,"惚":4494,"憂":4495,"戮":4496,"捺":4497,"搀":4498,"昙":4499,"暫":4500,"楹":4501,"歲":4502,"毀":4503,"氘":4504,"淵":4505,"渥":4506,"湍":4507,"漩":4508,"濃":4509,"燒":4510,"皙":4511,"礙":4512,"祂":4513,"粽":4514,"糜":4515,"纭":4516,"羧":4517,"腳":4518,"茲":4519,"蝙":4520,"蟠":4521,"袒":4522,"詔":4523,"讪":4524,"谕":4525,"赡":4526,"踱":4527,"蹴":4528,"鄰":4529,"醺":4530,"銅":4531,"钗":4532,"钨":4533,"闵":4534,"鞅":4535,"頒":4536,"飒":4537,"鳝":4538,"鳥":4539,"亳":4540,"傢":4541,"唔":4542,"啮":4543,"婺":4544,"岖":4545,"帛":4546,"怼":4547,"拗":4548,"拮":4549,"拴":4550,"捨":4551,"搔":4552,"淼":4553,"潛":4554,"痞":4555,"痿":4556,"皈":4557,"瞌":4558,"砰":4559,"砾":4560,"箕":4561,"籁":4562,"绛":4563,"缜":4564,"脲":4565,"舀":4566,"苞":4567,"萼":4568,"蓋":4569,"虛":4570,"蟆":4571,"蟋":4572,"託":4573,"诛":4574,"诩":4575,"谚":4576,"貫":4577,"賦":4578,"贊":4579,"逵":4580,"鄱":4581,"鈉":4582,"鑽":4583,"钊":4584,"钒":4585,"镣":4586,"颧":4587,"饨":4588,"馄":4589,"髮":4590,"鬟":4591,"麒":4592,"俐":4593,"勸":4594,"哝":4595,"唏":4596,"峦":4597,"嵴":4598,"帳":4599,"廟":4600,"廿":4601,"恙":4602,"戌":4603,"挎":4604,"捎":4605,"揚":4606,"搪":4607,"杷":4608,"枇":4609,"樹":4610,"殃":4611,"氤":4612,"氲":4613,"汐":4614,"汴":4615,"炀":4616,"牆":4617,"町":4618,"畲":4619,"疸":4620,"箔":4621,"箴":4622,"簪":4623,"繫":4624,"罷":4625,"胄":4626,"胪":4627,"脅":4628,"脘":4629,"脹":4630,"膈":4631,"荚":4632,"藿":4633,"虱":4634,"蚓":4635,"蚤":4636,"蚯":4637,"蜓":4638,"蟑":4639,"衮":4640,"裱":4641,"褴":4642,"詳":4643,"謝":4644,"谙":4645,"蹂":4646,"蹙":4647,"辍":4648,"迴":4649,"逅":4650,"遴":4651,"鋒":4652,"镉":4653,"閉":4654,"闰":4655,"闱":4656,"韻":4657,"頗":4658,"驮":4659,"侗":4660,"倭":4661,"傑":4662,"呂":4663,"哒":4664,"哧":4665,"嗝":4666,"嘹":4667,"噱":4668,"嚏":4669,"圩":4670,"妳":4671,"媛":4672,"岌":4673,"嵩":4674,"帥":4675,"幡":4676,"廈":4677,"徉":4678,"惆":4679,"惴":4680,"撸":4681,"擂":4682,"攫":4683,"敕":4684,"昇":4685,"桡":4686,"榛":4687,"橋":4688,"浚":4689,"漲":4690,"潤":4691,"焘":4692,"煦":4693,"犊":4694,"玺":4695,"璞":4696,"瓒":4697,"瓢":4698,"甬":4699,"瘸":4700,"皑":4701,"筏":4702,"糠":4703,"糧":4704,"綱":4705,"臆":4706,"艦":4707,"莘":4708,"蛭":4709,"蟀":4710,"褛":4711,"诽":4712,"谄":4713,"谤":4714,"豌":4715,"贻":4716,"蹟":4717,"躏":4718,"轶":4719,"辘":4720,"迂":4721,"邂":4722,"铀":4723,"锄":4724,"閱":4725,"陝":4726,"陨":4727,"隻":4728,"雉":4729,"雳":4730,"飲":4731,"驹":4732,"骰":4733,"鲈":4734,"佯":4735,"俑":4736,"俪":4737,"偌":4738,"剽":4739,"咚":4740,"咛":4741,"啶":4742,"嗔":4743,"嗨":4744,"噼":4745,"垩":4746,"壇":4747,"奘":4748,"奚":4749,"婢":4750,"婵":4751,"屌":4752,"岑":4753,"岷":4754,"巽":4755,"徑":4756,"徜":4757,"怦":4758,"恿":4759,"悻":4760,"抨":4761,"揩":4762,"擬":4763,"旌":4764,"杲":4765,"枭":4766,"栾":4767,"橫":4768,"殉":4769,"殘":4770,"涪":4771,"淨":4772,"渎":4773,"炔":4774,"烩":4775,"焯":4776,"煉":4777,"燧":4778,"犟":4779,"琰":4780,"痈":4781,"瘠":4782,"睬":4783,"瞟":4784,"砥":4785,"硼":4786,"箫":4787,"篝":4788,"絲":4789,"缨":4790,"羚":4791,"翌":4792,"荞":4793,"萱":4794,"蔻":4795,"蛎":4796,"蜻":4797,"裨":4798,"諦":4799,"诿":4800,"跺":4801,"遜":4802,"遞":4803,"酗":4804,"镌":4805,"阖":4806,"霹":4807,"靜":4808,"頁":4809,"饽":4810,"鵑":4811,"鹫":4812,"麸":4813,"麾":4814,"黍":4815,"伎":4816,"俸":4817,"吡":4818,"呦":4819,"唆":4820,"嘅":4821,"嘤":4822,"奂":4823,"娼":4824,"嬗":4825,"寰":4826,"屺":4827,"帼":4828,"徨":4829,"恸":4830,"恽":4831,"掬":4832,"擀":4833,"擾":4834,"旎":4835,"槌":4836,"殡":4837,"泠":4838,"涣":4839,"漕":4840,"潔":4841,"潞":4842,"濰":4843,"爻":4844,"牠":4845,"猖":4846,"猬":4847,"獵":4848,"甭":4849,"疽":4850,"痢":4851,"碉":4852,"禪":4853,"笺":4854,"篓":4855,"粕":4856,"緒":4857,"締":4858,"羔":4859,"羿":4860,"聶":4861,"聿":4862,"膺":4863,"膻":4864,"臧":4865,"臼":4866,"荊":4867,"蝈":4868,"袤":4869,"詢":4870,"誠":4871,"譽":4872,"讴":4873,"谩":4874,"轲":4875,"遲":4876,"鐘":4877,"钼":4878,"閣":4879,"闆":4880,"阕":4881,"霓":4882,"颦":4883,"鲑":4884,"鹳":4885,"龋":4886,"伫":4887,"佚":4888,"侶":4889,"偉":4890,"僳":4891,"兖":4892,"剜":4893,"叟":4894,"吠":4895,"咔":4896,"喙":4897,"噔":4898,"噻":4899,"囿":4900,"坳":4901,"堿":4902,"孺":4903,"尕":4904,"岚":4905,"崂":4906,"崧":4907,"扈":4908,"抡":4909,"拄":4910,"摁":4911,"旖":4912,"栀":4913,"桧":4914,"榔":4915,"槎":4916,"滁":4917,"焖":4918,"煜":4919,"狞":4920,"玷":4921,"珐":4922,"瑪":4923,"疊":4924,"疟":4925,"痂":4926,"痤":4927,"痨":4928,"盜":4929,"糅":4930,"纣":4931,"纾":4932,"绮":4933,"缄":4934,"胛":4935,"腆":4936,"腭":4937,"舷":4938,"苄":4939,"茱":4940,"菖":4941,"萸":4942,"蓦":4943,"蚌":4944,"蜴":4945,"裘":4946,"褓":4947,"覃":4948,"讚":4949,"诙":4950,"诶":4951,"谔":4952,"賢":4953,"贏":4954,"踐":4955,"踞":4956,"邺":4957,"酐":4958,"銜":4959,"錦":4960,"錫":4961,"鎖":4962,"铑":4963,"锢":4964,"隽":4965,"霭":4966,"頫":4967,"颚":4968,"颞":4969,"飯":4970,"馥":4971,"驸":4972,"骥":4973,"骷":4974,"髅":4975,"鲧":4976,"鲲":4977,"黜":4978,"齡":4979,"偈":4980,"債":4981,"億":4982,"匍":4983,"匐":4984,"叱":4985,"咿":4986,"哌":4987,"唉":4988,"唢":4989,"唰":4990,"喪":4991,"嗪":4992,"嗷":4993,"壕":4994,"壯":4995,"夙":4996,"奮":4997,"寬":4998,"崴":4999,"嵘":5000,"廳":5001,"彌":5002,"慘":5003,"慣":5004,"懑":5005,"懸":5006,"掖":5007,"搖":5008,"摞":5009,"晁":5010,"晗":5011,"曉":5012,"曜":5013,"杵":5014,"栉":5015,"欽":5016,"毂":5017,"汨":5018,"沱":5019,"涎":5020,"渚":5021,"溝":5022,"滸":5023,"漁":5024,"炜":5025,"煸":5026,"燈":5027,"燊":5028,"牦":5029,"牽":5030,"犍":5031,"獗":5032,"珉":5033,"琛":5034,"甾":5035,"皋":5036,"睨":5037,"矾":5038,"窿":5039,"筠":5040,"筵":5041,"籲":5042,"繩":5043,"纫":5044,"缈":5045,"缥":5046,"罄":5047,"罰":5048,"胍":5049,"胭":5050,"臟":5051,"芡":5052,"芩":5053,"芾":5054,"茗":5055,"茭":5056,"薏":5057,"藜":5058,"蚜":5059,"蛆":5060,"蛳":5061,"袂":5062,"襁":5063,"诘":5064,"赅":5065,"赝":5066,"踌":5067,"蹿":5068,"躇":5069,"辊":5070,"辕":5071,"醍":5072,"钰":5073,"铤":5074,"锃":5075,"飓":5076,"飕":5077,"骞":5078,"魚":5079,"鲟":5080,"麵":5081,"龛":5082,"倌":5083,"凍":5084,"刽":5085,"剐":5086,"吒":5087,"咂":5088,"咩":5089,"啐":5090,"啧":5091,"喵":5092,"嗎":5093,"囔":5094,"埂":5095,"塵":5096,"壑":5097,"夔":5098,"妪":5099,"娑":5100,"婕":5101,"婧":5102,"孱":5103,"寵":5104,"屄":5105,"屢":5106,"峋":5107,"峥":5108,"徹":5109,"忪":5110,"愫":5111,"挲":5112,"掣":5113,"撂":5114,"撅":5115,"擺":5116,"敝":5117,"斡":5118,"暢":5119,"曈":5120,"榈":5121,"槃":5122,"樽":5123,"樾":5124,"橇":5125,"濕":5126,"煨":5127,"犷":5128,"玥":5129,"珙":5130,"瓴":5131,"畿":5132,"痧":5133,"癞":5134,"矽":5135,"砜":5136,"砝":5137,"砲":5138,"磐":5139,"祗":5140,"笆":5141,"笈":5142,"籀":5143,"籃":5144,"纨":5145,"绫":5146,"耷":5147,"腼":5148,"茯":5149,"莒":5150,"蒐":5151,"蕙":5152,"蚣":5153,"蚩":5154,"蚪":5155,"蜈":5156,"蝌":5157,"蝕":5158,"螈":5159,"褂":5160,"誕":5161,"説":5162,"诋":5163,"貧":5164,"貼":5165,"賜":5166,"赭":5167,"跻":5168,"蹋":5169,"邋":5170,"鋼":5171,"鎏":5172,"铰":5173,"铱":5174,"锹":5175,"镊":5176,"镭":5177,"闊":5178,"闾":5179,"阆":5180,"鞣":5181,"韬":5182,"頂":5183,"颔":5184,"飚":5185,"馁":5186,"骶":5187,"鬧":5188,"鳌":5189,"鳗":5190,"鸵":5191,"鹑":5192,"鹜":5193,"丌":5194,"乜":5195,"佘":5196,"俚":5197,"偃":5198,"偵":5199,"偻":5200,"勁":5201,"呋":5202,"呓":5203,"呷":5204,"咤":5205,"喆":5206,"嗥":5207,"噙":5208,"噴":5209,"坨":5210,"堑":5211,"塾":5212,"墾":5213,"壅":5214,"娉":5215,"寮":5216,"峒":5217,"嵇":5218,"嶙":5219,"庾":5220,"怏":5221,"恻":5222,"懼":5223,"抻":5224,"拋":5225,"捲":5226,"掳":5227,"搡":5228,"搶":5229,"撫":5230,"敍":5231,"晟":5232,"枳":5233,"榘":5234,"淖":5235,"濁":5236,"濛":5237,"瀕":5238,"炘":5239,"炷":5240,"煅":5241,"煙":5242,"燎":5243,"狰":5244,"獄":5245,"珩":5246,"璜":5247,"産":5248,"畦":5249,"瘁":5250,"瘘":5251,"皴":5252,"盹":5253,"碚":5254,"祐":5255,"禍":5256,"穌":5257,"箩":5258,"綫":5259,"緬":5260,"緻":5261,"绔":5262,"绶":5263,"肅":5264,"脍":5265,"膠":5266,"臾":5267,"芮":5268,"菏":5269,"蓮":5270,"蕨":5271,"蕲":5272,"蛊":5273,"診":5274,"諷":5275,"譜":5276,"诃":5277,"谗":5278,"谥":5279,"豉":5280,"貸":5281,"賈":5282,"贰":5283,"跆":5284,"躍":5285,"遒":5286,"邕":5287,"醐":5288,"镐":5289,"镑":5290,"镕":5291,"閥":5292,"陲":5293,"隍":5294,"韋":5295,"顏":5296,"骛":5297,"骧":5298,"鬆":5299,"鲷":5300,"鸾":5301,"麝":5302,"黠":5303,"鼹":5304,"龊":5305,"龌":5306,"丶":5307,"仨":5308,"佤":5309,"卅":5310,"厲":5311,"叁":5312,"哽":5313,"啵":5314,"嘗":5315,"夢":5316,"夥":5317,"娛":5318,"峯":5319,"嶺":5320,"徇":5321,"忒":5322,"怆":5323,"悭":5324,"扪":5325,"揆":5326,"搽":5327,"撐":5328,"撲":5329,"撷":5330,"暹":5331,"柩":5332,"桀":5333,"榷":5334,"殒":5335,"殓":5336,"殼":5337,"毓":5338,"浃":5339,"浒":5340,"浣":5341,"淞":5342,"淺":5343,"湧":5344,"溏":5345,"濫":5346,"濯":5347,"烊":5348,"熘":5349,"牍":5350,"狹":5351,"獠":5352,"獾":5353,"珈":5354,"琮":5355,"瞿":5356,"砭":5357,"砼":5358,"碣":5359,"窮":5360,"笤":5361,"筱":5362,"繹":5363,"纰":5364,"罔":5365,"胥":5366,"腩":5367,"腴":5368,"膦":5369,"臵":5370,"舛":5371,"舫":5372,"荠":5373,"葚":5374,"蔫":5375,"蕩":5376,"蕭":5377,"藐":5378,"蛔":5379,"蛟":5380,"蜃":5381,"螯":5382,"觐":5383,"觞":5384,"謹":5385,"譴":5386,"诟":5387,"谑":5388,"谪":5389,"谯":5390,"貞":5391,"賺":5392,"赈":5393,"赓":5394,"趵":5395,"踮":5396,"蹶":5397,"輛":5398,"辇":5399,"迤":5400,"遢":5401,"郓":5402,"郢":5403,"鄢":5404,"锆":5405,"锉":5406,"锏":5407,"锲":5408,"闢":5409,"闿":5410,"阚":5411,"阪":5412,"陂":5413,"雞":5414,"靛":5415,"鞏":5416,"顛":5417,"颉":5418,"颱":5419,"饕":5420,"饯":5421,"饷":5422,"駕":5423,"駛":5424,"騰":5425,"骜":5426,"鲶":5427,"鳟":5428,"鴻":5429,"鸨":5430,"鹌":5431,"鼋":5432,"齒":5433,"乂":5434,"仟":5435,"佃":5436,"俅":5437,"倖":5438,"傕":5439,"僱":5440,"冼":5441,"剝":5442,"勳":5443,"厝":5444,"収":5445,"叡":5446,"吖":5447,"呾":5448,"咣":5449,"啷":5450,"喑":5451,"喟":5452,"喱":5453,"圜":5454,"坶":5455,"埭":5456,"墉":5457,"妝":5458,"姹":5459,"婀":5460,"媽":5461,"嬰":5462,"孀":5463,"孖":5464,"岡":5465,"崗":5466,"巯":5467,"幌":5468,"廬":5469,"徕":5470,"徭":5471,"恹":5472,"捱":5473,"掛":5474,"掸":5475,"揄":5476,"揖":5477,"揶":5478,"擠":5479,"斬":5480,"斱":5481,"曷":5482,"杈":5483,"杳":5484,"柵":5485,"桎":5486,"桠":5487,"梏":5488,"棂":5489,"榭":5490,"樞":5491,"欄":5492,"歆":5493,"汜":5494,"浔":5495,"湟":5496,"滓":5497,"滟":5498,"潰":5499,"澍":5500,"濂":5501,"瀏":5502,"焱":5503,"熨":5504,"牒":5505,"犒":5506,"猗":5507,"獸":5508,"玑":5509,"玦":5510,"珂":5511,"珥":5512,"琍":5513,"甙":5514,"疖":5515,"瘢":5516,"盅":5517,"盪":5518,"碩":5519,"磯":5520,"祎":5521,"祚":5522,"祜":5523,"祢":5524,"祿":5525,"禎":5526,"禦":5527,"筮":5528,"綦":5529,"緯":5530,"繇":5531,"繡":5532,"绺":5533,"罡":5534,"羸":5535,"耆":5536,"耙":5537,"肄":5538,"肱":5539,"腧":5540,"舐":5541,"苋":5542,"荃":5543,"萘":5544,"蚱":5545,"蛞":5546,"蛹":5547,"蜍":5548,"蝼":5549,"蠊":5550,"衲":5551,"裆":5552,"褙":5553,"証":5554,"諧":5555,"谘":5556,"谟":5557,"谶":5558,"賀":5559,"蹩":5560,"轟":5561,"辯":5562,"遑":5563,"遙":5564,"邙":5565,"邛":5566,"郫":5567,"鄞":5568,"醜":5569,"鏡":5570,"鑑":5571,"钡":5572,"铣":5573,"镳":5574,"闡":5575,"闩":5576,"阡":5577,"隼":5578,"霁":5579,"霎":5580,"飽":5581,"餵":5582,"駁":5583,"騷":5584,"驟":5585,"髂":5586,"鲢":5587,"鳃":5588,"鳕":5589,"鴉":5590,"鸢":5591,"仃":5592,"俟":5593,"偽":5594,"傈":5595,"傥":5596,"僕":5597,"哐":5598,"啉":5599,"啖":5600,"喬":5601,"嗲":5602,"噤":5603,"噹":5604,"嚮":5605,"囡":5606,"囫":5607,"囵":5608,"圻":5609,"堇":5610,"壟":5611,"妣":5612,"娆":5613,"岙":5614,"岿":5615,"崑":5616,"嶂":5617,"幟":5618,"庑":5619,"廂":5620,"弁":5621,"彿":5622,"恣":5623,"惇":5624,"憑":5625,"挈":5626,"摈":5627,"擞":5628,"昀":5629,"柒":5630,"栎":5631,"桕":5632,"樑":5633,"橼":5634,"櫃":5635,"氪":5636,"沭":5637,"泯":5638,"洩":5639,"洮":5640,"涿":5641,"淙":5642,"淝":5643,"溧":5644,"滘":5645,"滦":5646,"潋":5647,"澧":5648,"濱":5649,"瀛":5650,"炁":5651,"炝":5652,"烴":5653,"焗":5654,"焜":5655,"珏":5656,"璇":5657,"璟":5658,"疇":5659,"瘴":5660,"瘿":5661,"癥":5662,"盥":5663,"睥":5664,"矚":5665,"砻":5666,"碛":5667,"禛":5668,"稞":5669,"窈":5670,"窕":5671,"窠":5672,"窯":5673,"竇":5674,"笕":5675,"篑":5676,"紋":5677,"紮":5678,"纥":5679,"绦":5680,"绻":5681,"缙":5682,"缛":5683,"缱":5684,"羰":5685,"翎":5686,"聒":5687,"肏":5688,"胝":5689,"艄":5690,"艱":5691,"苜":5692,"苻":5693,"荥":5694,"荨":5695,"莠":5696,"菸":5697,"蒌":5698,"蓼":5699,"蓿":5700,"蔺":5701,"蕤":5702,"薤":5703,"蛄":5704,"蜚":5705,"蝓":5706,"螟":5707,"袈":5708,"裟":5709,"裾":5710,"觥":5711,"誰":5712,"諮":5713,"讫":5714,"讹":5715,"诨":5716,"谒":5717,"谲":5718,"豺":5719,"貪":5720,"賬":5721,"贈":5722,"趕":5723,"蹤":5724,"輩":5725,"輻":5726,"轭":5727,"邁":5728,"邳":5729,"郧":5730,"郴":5731,"郵":5732,"酢":5733,"醴":5734,"釐":5735,"釣":5736,"鈔":5737,"鉀":5738,"銘":5739,"铢":5740,"铳":5741,"锷":5742,"锺":5743,"镞":5744,"韪":5745,"餮":5746,"饬":5747,"馮":5748,"駿":5749,"騎":5750,"驕":5751,"驚":5752,"骅":5753,"髙":5754,"鳳":5755,"鵲":5756,"鶴":5757,"鷹":5758,"鹄":5759,"鹗":5760,"亰":5761,"佗":5762,"佻":5763,"俦":5764,"俾":5765,"倜":5766,"偕":5767,"僭":5768,"償":5769,"兌":5770,"冇":5771,"冴":5772,"刎":5773,"劭":5774,"勖":5775,"厭":5776,"叻":5777,"呲":5778,"啫":5779,"嗖":5780,"嘆":5781,"嘧":5782,"嚓":5783,"囹":5784,"坩":5785,"垓":5786,"埚":5787,"埝":5788,"塬":5789,"姣":5790,"嫘":5791,"嬪":5792,"孛":5793,"孬":5794,"屍":5795,"崤":5796,"嵊":5797,"嵬":5798,"嵯":5799,"巖":5800,"庖":5801,"弭":5802,"彎":5803,"彥":5804,"彧":5805,"忤":5806,"悌":5807,"悶":5808,"慾":5809,"懋":5810,"抟":5811,"掃":5812,"撾":5813,"擋":5814,"擘":5815,"擱":5816,"攜":5817,"旮":5818,"桢":5819,"棲":5820,"椹":5821,"槿":5822,"殇":5823,"氚":5824,"汆":5825,"沅":5826,"泺":5827,"洵":5828,"浜":5829,"渾":5830,"湎":5831,"湫":5832,"湯":5833,"滬":5834,"漯":5835,"潟":5836,"濤":5837,"灞":5838,"炅":5839,"犄":5840,"犧":5841,"犸":5842,"獅":5843,"玳":5844,"珞":5845,"珪":5846,"珲":5847,"琊":5848,"琨":5849,"瑣":5850,"瓿":5851,"疝":5852,"疳":5853,"痍":5854,"睒":5855,"砀":5856,"砟":5857,"硚":5858,"碁":5859,"碲":5860,"磙":5861,"祕":5862,"禟":5863,"秣":5864,"竊":5865,"筌":5866,"篙":5867,"簋":5868,"糁":5869,"糗":5870,"糾":5871,"絃":5872,"縫":5873,"缂":5874,"缇":5875,"缫":5876,"肓":5877,"胴":5878,"膘":5879,"膚":5880,"臉":5881,"臊":5882,"舺":5883,"艋":5884,"苕":5885,"茏":5886,"茔":5887,"荪":5888,"莶":5889,"葳":5890,"蒴":5891,"薅":5892,"薨":5893,"藁":5894,"蘊":5895,"蘋":5896,"蘧":5897,"蘿":5898,"虜":5899,"虢":5900,"蚴":5901,"蜇":5902,"蜊":5903,"蝮":5904,"蝾":5905,"螢":5906,"螳":5907,"蟲":5908,"蠍":5909,"蠡":5910,"衆":5911,"訟":5912,"誘":5913,"誦":5914,"諫":5915,"謠":5916,"诂":5917,"诌":5918,"豇":5919,"豈":5920,"豬":5921,"販":5922,"賊":5923,"賭":5924,"赊":5925,"赟":5926,"跎":5927,"跶":5928,"踽":5929,"蹉":5930,"軒":5931,"辎":5932,"辔":5933,"逡":5934,"逶":5935,"遽":5936,"郯":5937,"釆":5938,"鉛":5939,"鍊":5940,"鎂":5941,"鑒":5942,"钌":5943,"钤":5944,"铉":5945,"铨":5946,"铯":5947,"锑":5948,"锛":5949,"镓":5950,"閃":5951,"閑":5952,"霏":5953,"霧":5954,"霰":5955,"靼":5956,"餾":5957,"饒":5958,"饴":5959,"馊":5960,"驛":5961,"骈":5962,"鬲":5963,"鲠":5964,"鲭":5965,"鳜":5966,"鳴":5967,"鹘":5968,"鹵":5969,"黉":5970,"鼬":5971,"鼾":5972,"丟":5973,"亇":5974,"仂":5975,"仵":5976,"仸":5977,"伉":5978,"伕":5979,"佟":5980,"侂":5981,"侖":5982,"侪":5983,"俎":5984,"倮":5985,"儆":5986,"儋":5987,"兇":5988,"刈":5989,"刪":5990,"劵":5991,"卮":5992,"叢":5993,"叵":5994,"呔":5995,"咗":5996,"咲":5997,"咻":5998,"唁":5999,"唷":6000,"唸":6001,"啕":6002,"喚":6003,"喺":6004,"嗟":6005,"嘬":6006,"嚅":6007,"嚇":6008,"囖":6009,"囗":6010,"囧":6011,"圄":6012,"坻":6013,"埰":6014,"塗":6015,"墻":6016,"壠":6017,"夾":6018,"娣":6019,"媾":6020,"孳":6021,"宓":6022,"岀":6023,"岬":6024,"崃":6025,"巔":6026,"帑":6027,"幄":6028,"幛":6029,"廚":6030,"恚":6031,"悅":6032,"悝":6033,"悫":6034,"愍":6035,"憤":6036,"懾":6037,"挞":6038,"挾":6039,"掇":6040,"摺":6041,"撺":6042,"攏":6043,"斃":6044,"旃":6045,"旪":6046,"旯":6047,"曩":6048,"朊":6049,"枞":6050,"柘":6051,"桿":6052,"梆":6053,"椋":6054,"椽":6055,"楢":6056,"楣":6057,"榫":6058,"槁":6059,"槊":6060,"橹":6061,"檜":6062,"檩":6063,"櫻":6064,"欖":6065,"歙":6066,"殚":6067,"毘":6068,"氩":6069,"氾":6070,"汊":6071,"沣":6072,"泱":6073,"泷":6074,"浠":6075,"涞":6076,"溼":6077,"滉":6078,"滯":6079,"滾":6080,"潑":6081,"潴":6082,"濉":6083,"瀉":6084,"瀋":6085,"灘":6086,"炤":6087,"煇":6088,"燮":6089,"爿":6090,"牘":6091,"牯":6092,"狨":6093,"獒":6094,"獭":6095,"玟":6096,"珅":6097,"琜":6098,"琬":6099,"瑄":6100,"瑋":6101,"瑭":6102,"瑯":6103,"瑷":6104,"甑":6105,"甦":6106,"畈":6107,"畝":6108,"畤":6109,"疴":6110,"痼":6111,"瘗":6112,"癡":6113,"癮":6114,"盃":6115,"眬":6116,"睢":6117,"矸":6118,"砗":6119,"硌":6120,"碴":6121,"磚":6122,"磡":6123,"磲":6124,"禱":6125,"秭":6126,"稗":6127,"穀":6128,"穫":6129,"窩":6130,"篾":6131,"糍":6132,"紡":6133,"紳":6134,"綢":6135,"縻":6136,"纏":6137,"纖":6138,"罘":6139,"罵":6140,"翊":6141,"耄":6142,"耋":6143,"耒":6144,"聰":6145,"肼":6146,"膽":6147,"臏":6148,"舲":6149,"舸":6150,"芤":6151,"芰":6152,"苡":6153,"莳":6154,"莴":6155,"菅":6156,"萜":6157,"葭":6158,"蒼":6159,"蔭":6160,"蕖":6161,"蘆":6162,"蘖":6163,"虬":6164,"蛴":6165,"蜢":6166,"螬":6167,"蠟":6168,"蠲":6169,"衞":6170,"衹":6171,"衾":6172,"褲":6173,"觊":6174,"觎":6175,"訇":6176,"訢":6177,"詠":6178,"詣":6179,"詮":6180,"誅":6181,"謇":6182,"謙":6183,"謬":6184,"诓":6185,"诤":6186,"诰":6187,"谡":6188,"豨":6189,"貔":6190,"貶":6191,"貽":6192,"賠":6193,"贛":6194,"赧":6195,"跖":6196,"踔":6197,"軀":6198,"轍":6199,"轸":6200,"迺":6201,"郞":6202,"鄄":6203,"酊":6204,"酩":6205,"醌":6206,"醮":6207,"鈍":6208,"鉞":6209,"銮":6210,"銳":6211,"鍛":6212,"钇":6213,"钜":6214,"钬":6215,"钺":6216,"铄":6217,"铧":6218,"铩":6219,"锗":6220,"锨":6221,"锱":6222,"镗":6223,"镧":6224,"隕":6225,"隗":6226,"隰":6227,"隴":6228,"雒":6229,"鞑":6230,"頌":6231,"顗":6232,"顼":6233,"颛":6234,"颡":6235,"飨":6236,"餚":6237,"馐":6238,"騙":6239,"驷":6240,"骖":6241,"髎":6242,"鲎":6243,"鲚":6244,"鵝":6245,"鸱":6246,"鸲":6247,"鹼":6248,"黟":6249,"齋":6250,"鿬":6251,"㓥":6252,"㵲":6253,"䘵":6254,"乊":6255,"亓":6256,"亶":6257,"仞":6258,"佞":6259,"佢":6260,"佶":6261,"侑":6262,"俶":6263,"倥":6264,"偬":6265,"傚":6266,"僮":6267,"儁":6268,"儉":6269,"兗":6270,"兿":6271,"冏":6272,"凈":6273,"刍":6274,"剀":6275,"剋":6276,"劢":6277,"勣":6278,"勮":6279,"勰":6280,"勻":6281,"匽":6282,"卌":6283,"卐":6284,"叏":6285,"叐":6286,"吲":6287,"呸":6288,"咁":6289,"哔":6290,"哚":6291,"唳":6292,"啁":6293,"啻":6294,"啾":6295,"喹":6296,"嗫":6297,"嗰":6298,"嗵":6299,"嘚":6300,"嘞":6301,"嘢":6302,"嘣":6303,"嘭":6304,"噌":6305,"囍":6306,"囟":6307,"圉":6308,"坭":6309,"垟":6310,"垡":6311,"垭":6312,"埇":6313,"埕":6314,"堃":6315,"堞":6316,"堯":6317,"塢":6318,"塽":6319,"墒":6320,"増":6321,"墜":6322,"墮":6323,"壢":6324,"壩":6325,"壺":6326,"奭":6327,"妁":6328,"婭":6329,"宄":6330,"尜":6331,"岫":6332,"崀":6333,"嵛":6334,"巉":6335,"巒":6336,"巜":6337,"帙":6338,"廒":6339,"弢":6340,"徳":6341,"忉":6342,"忝":6343,"忸":6344,"怛":6345,"怩":6346,"怵":6347,"恁":6348,"恥":6349,"悱":6350,"惱":6351,"愆":6352,"愎":6353,"愠":6354,"憺":6355,"懲":6356,"戡":6357,"扞":6358,"扥":6359,"拚":6360,"挢":6361,"捌":6362,"捯":6363,"掮":6364,"掴":6365,"掾":6366,"搆":6367,"摟":6368,"撵":6369,"撿":6370,"擄":6371,"擲":6372,"攤":6373,"攬":6374,"攷":6375,"昴":6376,"晞":6377,"晷":6378,"暌":6379,"暝":6380,"曠":6381,"朓":6382,"杩":6383,"柝":6384,"栳":6385,"桁":6386,"棟":6387,"棰":6388,"棹":6389,"椤":6390,"楝":6391,"楦":6392,"楮":6393,"榉":6394,"様":6395,"樯":6396,"樸":6397,"檗":6398,"歎":6399,"歜":6400,"殑":6401,"殳":6402,"毐":6403,"毵":6404,"氅":6405,"氐":6406,"氕":6407,"汙":6408,"沏":6409,"沔":6410,"沤":6411,"泅":6412,"泮":6413,"洄":6414,"洹":6415,"浈":6416,"浞":6417,"浯":6418,"淦":6419,"淩":6420,"淪":6421,"淸":6422,"渌":6423,"渦":6424,"溆":6425,"溚":6426,"溟":6427,"溱":6428,"溷":6429,"滂":6430,"滄":6431,"滢":6432,"滹":6433,"漄":6434,"漿":6435,"潆":6436,"澶":6437,"濠":6438,"瀾":6439,"烚":6440,"焐":6441,"焓":6442,"煊":6443,"煩":6444,"燚":6445,"燭":6446,"燹":6447,"爐":6448,"猷":6449,"猹":6450,"玹":6451,"珦":6452,"珵":6453,"琏":6454,"瑀":6455,"瑁":6456,"瑈":6457,"瑗":6458,"瑤":6459,"璠":6460,"瓊":6461,"瓌":6462,"瓘":6463,"瓤":6464,"甌":6465,"畀":6466,"畊":6467,"畚":6468,"疃":6469,"疥":6470,"痠":6471,"瘓":6472,"瘰":6473,"癔":6474,"癩":6475,"癱":6476,"皰":6477,"睇":6478,"瞋":6479,"矯":6480,"砈":6481,"砒":6482,"硖":6483,"碜":6484,"祆":6485,"祹":6486,"秕":6487,"稔":6488,"窣":6489,"窸":6490,"竑":6491,"竜":6492,"竽":6493,"箋":6494,"箐":6495,"箸":6496,"篁":6497,"篦":6498,"篩":6499,"簾":6500,"籠":6501,"籤":6502,"粲":6503,"絹":6504,"綁":6505,"綬":6506,"綮":6507,"綾":6508,"綿":6509,"緝":6510,"縊":6511,"繳":6512,"纜":6513,"绀":6514,"绉":6515,"绡":6516,"缟":6517,"缦":6518,"缬":6519,"缯":6520,"翕":6521,"翦":6522,"翮":6523,"翹":6524,"耨":6525,"聃":6526,"聩":6527,"肟":6528,"胼":6529,"脛":6530,"腎":6531,"腚":6532,"腸":6533,"舖":6534,"艏":6535,"艷":6536,"苁":6537,"苌":6538,"苳":6539,"苾":6540,"茕":6541,"茴":6542,"茼":6543,"荇":6544,"荏":6545,"莨":6546,"莪":6547,"菡":6548,"菪":6549,"菹":6550,"萋":6551,"萏":6552,"葺":6553,"蒎":6554,"蒗":6555,"蒡":6556,"蒯":6557,"蒺":6558,"蒽":6559,"蓊":6560,"蓑":6561,"蓖":6562,"蔔":6563,"蕈":6564,"薮":6565,"薹":6566,"藦":6567,"虧":6568,"虿":6569,"蚡":6570,"蚶":6571,"蜎":6572,"蜱":6573,"蝦":6574,"蠻":6575,"衩":6576,"衽":6577,"袢":6578,"袪":6579,"裈":6580,"觃":6581,"訃":6582,"詐":6583,"詬":6584,"誇":6585,"誣":6586,"誼":6587,"諤":6588,"諭":6589,"诜":6590,"诮":6591,"谌":6592,"谮":6593,"貉":6594,"賁":6595,"賑":6596,"贍":6597,"贲":6598,"赉":6599,"趸":6600,"趿":6601,"跹":6602,"踰":6603,"蹚":6604,"蹺":6605,"蹼":6606,"軾":6607,"轅":6608,"轎":6609,"轳":6610,"辋":6611,"迨":6612,"逋":6613,"逖":6614,"逦":6615,"逯":6616,"郃":6617,"郋":6618,"鄒":6619,"鄚":6620,"鄜":6621,"鄴":6622,"酆":6623,"酞":6624,"酽":6625,"醢":6626,"釀":6627,"鈞":6628,"鈺":6629,"鉅":6630,"鉉":6631,"鉤":6632,"錶":6633,"鍍":6634,"鎌":6635,"鏊":6636,"鏖":6637,"鏞":6638,"鑄":6639,"鑲":6640,"钍":6641,"钐":6642,"钔":6643,"钕":6644,"钣":6645,"钲":6646,"铋":6647,"铍":6648,"铚":6649,"铟":6650,"锟":6651,"镛":6652,"镫":6653,"閏":6654,"閒":6655,"閘":6656,"闖":6657,"闼":6658,"阄":6659,"阇":6660,"阍":6661,"阗":6662,"陟":6663,"雎":6664,"雛":6665,"靥":6666,"韜":6667,"韫":6668,"頃":6669,"頑":6670,"顔":6671,"颀":6672,"颙":6673,"飄":6674,"飢":6675,"飭":6676,"餅":6677,"餓":6678,"馓":6679,"馔":6680,"馗":6681,"馳":6682,"骊":6683,"骐":6684,"骕":6685,"骘":6686,"骺":6687,"髌":6688,"髯":6689,"鬈":6690,"鬱":6691,"魇":6692,"魟":6693,"鰲":6694,"鰻":6695,"鲘":6696,"鲛":6697,"鲣":6698,"鳊":6699,"鳐":6700,"鳔":6701,"鴨":6702,"鷂":6703,"鷺":6704,"鸪":6705,"鹂":6706,"鹞":6707,"鹧":6708,"鹬":6709,"麴":6710,"黢":6711,"鼍":6712,"齦":6713,"龃":6714,"龅":6715,"龇":6716,"龉":6717,"龜":6718,"㕛":6719,"㬎":6720,"㮙":6721,"䃅":6722,"䌷":6723,"䱻":6724,"䲟":6725,"乧":6726,"亁":6727,"亍":6728,"亙":6729,"仉":6730,"仛":6731,"仡":6732,"伢":6733,"伥":6734,"伬":6735,"伷":6736,"佇":6737,"佥":6738,"佧":6739,"佹":6740,"佺":6741,"侔":6742,"侩":6743,"侫":6744,"侭":6745,"俙":6746,"俛":6747,"俜":6748,"俠":6749,"俣":6750,"俤":6751,"俫":6752,"俳":6753,"倣":6754,"倨":6755,"倻":6756,"偍":6757,"偱":6758,"傆":6759,"傩":6760,"傫":6761,"傭":6762,"僓":6763,"僖":6764,"僛":6765,"僜":6766,"僰":6767,"児":6768,"兕":6769,"兲":6770,"冂":6771,"冑":6772,"冣":6773,"冦":6774,"凇":6775,"凢":6776,"刓":6777,"剎":6778,"剡":6779,"劘":6780,"勦":6781,"勷":6782,"匄":6783,"匱":6784,"卟":6785,"卣":6786,"卬":6787,"卲":6788,"叒":6789,"叕":6790,"吋":6791,"吣":6792,"呎":6793,"呒":6794,"呯":6795,"哂":6796,"哏":6797,"哙":6798,"啈":6799,"啓":6800,"啭":6801,"喈":6802,"喏":6803,"嗳":6804,"嗾":6805,"嘔":6806,"噘":6807,"噚":6808,"噫":6809,"噯":6810,"噸":6811,"嚆":6812,"嚟":6813,"嚩":6814,"嚯":6815,"囝":6816,"囪":6817,"囯":6818,"図":6819,"圞":6820,"圪":6821,"圮":6822,"垅":6823,"垆":6824,"垌":6825,"垤":6826,"垾":6827,"埗":6828,"埙":6829,"埡":6830,"埵":6831,"埼":6832,"堌":6833,"堧":6834,"塅":6835,"塆":6836,"塝":6837,"塨":6838,"墇":6839,"墊":6840,"墘":6841,"墳":6842,"壎":6843,"壘":6844,"夤":6845,"夲":6846,"奁":6847,"妌":6848,"妤":6849,"妫":6850,"姦":6851,"姪":6852,"娈":6853,"娝":6854,"婼":6855,"媄":6856,"媧":6857,"嫈":6858,"嫓":6859,"嫚":6860,"嫪":6861,"嫱":6862,"嬅":6863,"嬌":6864,"嬖":6865,"嬟":6866,"孑":6867,"孿":6868,"宥":6869,"寔":6870,"寘":6871,"寢":6872,"寤":6873,"専":6874,"尅":6875,"尌":6876,"尒":6877,"尻":6878,"屦":6879,"屮":6880,"岓":6881,"岘":6882,"岠":6883,"岢":6884,"峁":6885,"峴":6886,"崁":6887,"崆":6888,"崊":6889,"崮":6890,"嵋":6891,"嵒":6892,"嶄":6893,"嶮":6894,"嶲":6895,"巿":6896,"帄":6897,"帔":6898,"幞":6899,"幪":6900,"幵":6901,"庠":6902,"庼":6903,"廄":6904,"廋":6905,"廙":6906,"廪":6907,"弇":6908,"彊":6909,"彟":6910,"彳":6911,"徆":6912,"徼":6913,"忄":6914,"怄":6915,"怍":6916,"怙":6917,"恂":6918,"恫":6919,"悰":6920,"愃":6921,"慄":6922,"慆":6923,"憷":6924,"懃":6925,"懶":6926,"懺":6927,"懽":6928,"戆":6929,"戕":6930,"戗":6931,"戢":6932,"戬":6933,"戸":6934,"扃":6935,"抜":6936,"抰":6937,"拊":6938,"挼":6939,"捩":6940,"掄":6941,"掟":6942,"掤":6943,"掯":6944,"揀":6945,"揵":6946,"搵":6947,"搾":6948,"摙":6949,"摝":6950,"摰":6951,"摻":6952,"撈":6953,"撌":6954,"撓":6955,"撘":6956,"撥":6957,"擓":6958,"擢":6959,"擤":6960,"攈":6961,"攔":6962,"斂":6963,"斿":6964,"旄":6965,"旉":6966,"旛":6967,"旰":6968,"昄":6969,"昉":6970,"昑":6971,"昝":6972,"昶":6973,"晝":6974,"晡":6975,"暈":6976,"暉":6977,"暐":6978,"暵":6979,"暻":6980,"曁":6981,"曌":6982,"曖":6983,"曧":6984,"曬":6985,"曱":6986,"曽":6987,"朮":6988,"杅":6989,"杪":6990,"杴":6991,"杼":6992,"枋":6993,"枘":6994,"枧":6995,"柞":6996,"柰":6997,"査":6998,"柾":6999,"栊":7000,"栝":7001,"栢":7002,"栱":7003,"栲":7004,"桫":7005,"桷":7006,"梘":7007,"棃":7008,"棗":7009,"棛":7010,"椁":7011,"椪":7012,"椴":7013,"楫":7014,"楯":7015,"楸":7016,"楽":7017,"榀":7018,"榖":7019,"榧":7020,"槔":7021,"槱":7022,"樛":7023,"樨":7024,"樴":7025,"橈":7026,"橊":7027,"橐":7028,"橢":7029,"檄":7030,"檫":7031,"檯":7032,"櫚":7033,"櫥":7034,"欤":7035,"欸":7036,"歭":7037,"歮":7038,"歴":7039,"殁":7040,"殗":7041,"殛":7042,"殞":7043,"殭":7044,"殯":7045,"殲":7046,"毉":7047,"毽":7048,"氎":7049,"氖":7050,"氙":7051,"氡":7052,"氵":7053,"氽":7054,"沆":7055,"沬":7056,"泐":7057,"泚":7058,"泩":7059,"泫":7060,"洀":7061,"洇":7062,"洌":7063,"洎":7064,"洑":7065,"洙":7066,"洧":7067,"洶":7068,"洸":7069,"洺":7070,"浉":7071,"浍":7072,"浐":7073,"浡":7074,"浥":7075,"涇":7076,"涑":7077,"涔":7078,"涘":7079,"涴":7080,"涼":7081,"淚":7082,"渓":7083,"湊":7084,"湔":7085,"溘":7086,"溽":7087,"滈":7088,"滎":7089,"滏":7090,"滗":7091,"滙":7092,"漈":7093,"漒":7094,"漤":7095,"漶":7096,"潏":7097,"潸":7098,"澆":7099,"澌":7100,"澗":7101,"澱":7102,"瀣":7103,"瀰":7104,"灏":7105,"灝":7106,"烔":7107,"烜":7108,"焴":7109,"煆":7110,"煖":7111,"煣":7112,"煥":7113,"熳":7114,"燁":7115,"燇":7116,"燔":7117,"燾":7118,"爛":7119,"爢":7120,"爨":7121,"爰":7122,"爺":7123,"牖":7124,"牝":7125,"牾":7126,"犇":7127,"狍":7128,"狎":7129,"狒":7130,"狝":7131,"狯":7132,"狲":7133,"猁":7134,"猊":7135,"猞":7136,"猢":7137,"玆":7138,"玎":7139,"玕":7140,"珝":7141,"珣":7142,"珮":7143,"珴":7144,"瑔":7145,"瑠":7146,"璁":7147,"璉":7148,"璎":7149,"璘":7150,"璝":7151,"璩":7152,"璽":7153,"璿":7154,"瓚":7155,"甓":7156,"甕":7157,"甴":7158,"畵":7159,"疔":7160,"疠":7161,"疬":7162,"痱":7163,"瘊":7164,"瘋":7165,"瘡":7166,"瘼":7167,"癃":7168,"癇":7169,"癒":7170,"癭":7171,"癲":7172,"盉":7173,"盞":7174,"県":7175,"眕":7176,"眦":7177,"睊":7178,"睚":7179,"睞":7180,"睩":7181,"睱":7182,"睺":7183,"瞑":7184,"瞞":7185,"瞽":7186,"矅":7187,"矍":7188,"砬":7189,"硇":7190,"硏":7191,"硷":7192,"碒":7193,"碕":7194,"碶":7195,"磦":7196,"磬":7197,"磴":7198,"磾":7199,"礅":7200,"礆":7201,"礫":7202,"祅":7203,"祊":7204,"祏":7205,"祙":7206,"祫":7207,"祳":7208,"禊":7209,"禑":7210,"禤":7211,"禥":7212,"禨":7213,"禩":7214,"禵":7215,"秅":7216,"秔":7217,"稃":7218,"稜":7219,"穎":7220,"穑":7221,"穜":7222,"穢":7223,"穰":7224,"窌":7225,"笄":7226,"笊":7227,"笏":7228,"笞":7229,"笫":7230,"笮":7231,"笳":7232,"笾":7233,"筇":7234,"筚":7235,"筦":7236,"箨":7237,"箿":7238,"篤":7239,"簃":7240,"簄":7241,"簒":7242,"籐":7243,"籒":7244,"籖":7245,"籼":7246,"粛":7247,"粝":7248,"粳":7249,"粻":7250,"粿":7251,"糨":7252,"紗":7253,"紝":7254,"絅":7255,"絜":7256,"絞":7257,"絨":7258,"絵":7259,"絺":7260,"綑":7261,"綰":7262,"綺":7263,"総":7264,"縛":7265,"縠":7266,"繆":7267,"繕":7268,"繯":7269,"纔":7270,"纮":7271,"绂":7272,"绌":7273,"绐":7274,"绗":7275,"绱":7276,"绲":7277,"绹":7278,"缍":7279,"缗":7280,"缢":7281,"缧":7282,"缽":7283,"罝":7284,"罟":7285,"罽":7286,"罾":7287,"羑":7288,"羥":7289,"翃":7290,"翈":7291,"翚":7292,"翥":7293,"翳":7294,"耜":7295,"耧":7296,"耵":7297,"聍":7298,"聱":7299,"聾":7300,"胗":7301,"胙":7302,"胨":7303,"胬":7304,"脁":7305,"脇":7306,"腙":7307,"腠":7308,"腫":7309,"膩":7310,"膿":7311,"臜":7312,"臬":7313,"臶":7314,"舡":7315,"舢":7316,"艅":7317,"艉":7318,"艎":7319,"艙":7320,"芃":7321,"芎":7322,"芐":7323,"芑":7324,"芘":7325,"芨":7326,"芫":7327,"苈":7328,"苎":7329,"苒":7330,"苠":7331,"苣":7332,"苫":7333,"茚":7334,"荂":7335,"荑":7336,"荜":7337,"荦":7338,"荳":7339,"荸":7340,"荻":7341,"荽":7342,"莜":7343,"莩":7344,"莼":7345,"菉":7346,"菔":7347,"菘":7348,"菰":7349,"萁":7350,"萆":7351,"萩":7352,"葊":7353,"葢":7354,"葰":7355,"葶":7356,"葸":7357,"蒍":7358,"蒨":7359,"蒻":7360,"蓆":7361,"蓐":7362,"蓗":7363,"蓥":7364,"蔴":7365,"蕞":7366,"蕪":7367,"薢":7368,"藺":7369,"蘘":7370,"蘩":7371,"虺":7372,"蚋":7373,"蚧":7374,"蚰":7375,"蛏":7376,"蛱":7377,"蛸":7378,"蛻":7379,"蜆":7380,"蜉":7381,"蜑":7382,"蜣":7383,"蝣":7384,"蝯":7385,"螇":7386,"螰":7387,"螵":7388,"螽":7389,"蠅":7390,"蠓":7391,"蠔":7392,"蠶":7393,"蠹":7394,"衄":7395,"衕":7396,"衖":7397,"衚":7398,"衪":7399,"袴":7400,"裉":7401,"裒":7402,"裖":7403,"裥":7404,"褆":7405,"褫":7406,"襕":7407,"襞":7408,"襬":7409,"覓":7410,"覤":7411,"覦":7412,"覬":7413,"観":7414,"覻":7415,"觇":7416,"觚":7417,"觜":7418,"訛":7419,"訞":7420,"訣":7421,"訥":7422,"訶":7423,"訾":7424,"詆":7425,"詎":7426,"詭":7427,"詰":7428,"誊":7429,"誐":7430,"誡":7431,"誨":7432,"誹":7433,"諉":7434,"諏":7435,"諒":7436,"諡":7437,"謁":7438,"謐":7439,"謗":7440,"譞":7441,"讖":7442,"讞":7443,"讣":7444,"讦":7445,"讧":7446,"讬":7447,"谀":7448,"谝":7449,"豎":7450,"豕":7451,"豢":7452,"豳":7453,"豸":7454,"貅":7455,"貘":7456,"貯":7457,"賂":7458,"賄":7459,"賒":7460,"賤":7461,"贽":7462,"赍":7463,"趄":7464,"趔":7465,"趺":7466,"跣":7467,"跬":7468,"跰":7469,"踯":7470,"蹀":7471,"蹇":7472,"蹕":7473,"躅":7474,"躐":7475,"躞":7476,"軃":7477,"軼":7478,"輈":7479,"輟":7480,"轆":7481,"轤":7482,"轫":7483,"辂":7484,"迍":7485,"迳":7486,"逕":7487,"遘":7488,"遯":7489,"邅":7490,"邇":7491,"邉":7492,"邠":7493,"邡":7494,"邬":7495,"邰":7496,"邴":7497,"郇":7498,"郏":7499,"郕":7500,"郛":7501,"郤":7502,"郦":7503,"鄩":7504,"鄯":7505,"酙":7506,"酤":7507,"酴":7508,"醅":7509,"醖":7510,"醞":7511,"醪":7512,"醵":7513,"釗":7514,"鈕":7515,"鈣":7516,"鈴":7517,"鈵":7518,"鈷":7519,"鈾":7520,"鉄":7521,"鉆":7522,"鉎":7523,"銃":7524,"銆":7525,"銦":7526,"銹":7527,"鋪":7528,"鋸":7529,"鋹":7530,"錐":7531,"錘":7532,"錩":7533,"錮":7534,"鍋":7535,"鍪":7536,"鍾":7537,"鎊":7538,"鎝":7539,"鏃":7540,"鏍":7541,"鏐":7542,"鐫":7543,"鐸":7544,"鐺":7545,"鑱":7546,"钅":7547,"钆":7548,"钭":7549,"钹":7550,"钽":7551,"钿":7552,"铊":7553,"铓":7554,"铗":7555,"铦":7556,"锒":7557,"锕":7558,"锴":7559,"锶":7560,"锿":7561,"镃":7562,"镏":7563,"镒":7564,"镚":7565,"镝":7566,"镟":7567,"镠":7568,"镥":7569,"镪":7570,"镬":7571,"镲":7572,"镴":7573,"閔":7574,"閡":7575,"関":7576,"閤":7577,"閨":7578,"閭":7579,"閲":7580,"闐":7581,"闥":7582,"闳":7583,"闶":7584,"阃":7585,"阏":7586,"阒":7587,"阯":7588,"隈":7589,"隠":7590,"隹":7591,"雐":7592,"雩":7593,"雱":7594,"霑":7595,"靚":7596,"靦":7597,"鞌":7598,"鞯":7599,"鞾":7600,"韃":7601,"韌":7602,"頠":7603,"頸":7604,"顒":7605,"顫":7606,"颢":7607,"颶":7608,"飆":7609,"飪":7610,"飼":7611,"餉":7612,"餞":7613,"餬":7614,"饋":7615,"馕":7616,"馭":7617,"駝":7618,"驊":7619,"驩":7620,"驽":7621,"骓":7622,"骙":7623,"骟":7624,"髀":7625,"髁":7626,"髒":7627,"髫":7628,"鬄":7629,"鬍":7630,"鬻":7631,"鮑":7632,"鮪":7633,"鯊":7634,"鯽":7635,"鰣":7636,"鰭":7637,"鱲":7638,"鲇":7639,"鲐":7640,"鲡":7641,"鲥":7642,"鲮":7643,"鲳":7644,"鲻":7645,"鲼":7646,"鳀":7647,"鳢":7648,"鳤":7649,"鳩":7650,"鳶":7651,"鴆":7652,"鵡":7653,"鵬":7654,"鵰":7655,"鶻":7656,"鷃":7657,"鷗":7658,"鷸":7659,"鸚":7660,"鸝":7661,"鸩":7662,"鸮":7663,"鸷":7664,"鹈":7665,"鹕":7666,"鹟":7667,"鹮":7668,"鹱":7669,"麈":7670,"黐":7671,"黪":7672,"黴":7673,"黾":7674,"鼐":7675,"鼢":7676,"鼳":7677,"齑":7678,"齣":7679,"龔":7680,"龕":7681,"龤":7682},"pinyin":{"<pad>":0,"<unk>":1,"<mask>":2,"<cls>":3,"de":4,"shi":5,"yi":6,"ji":7,"zhi":8,"bu":9,"you":10,"li":11,"wei":12,"le":13,"zai":14,"zhe":15,"zhong":16,"ren":17,"yu":18,"he":19,"zi":20,"ge":21,"qi":22,"guo":23,"jian":24,"wo":25,"xiang":26,"dao":27,"ye":28,"da":29,"ta":30,"xian":31,"ke":32,"xing":33,"xi":34,"jiu":35,"di":36,"hui":37,"gong":38,"sheng":39,"cheng":40,"jia":41,"yao":42,"jie":43,"shang":44,"jin":45,"jing":46,"chu":47,"wu":48,"fa":49,"shu":50,"fu":51,"yuan":52,"zuo":53,"xin":54,"ti":55,"men":56,"mei":57,"xue":58,"zhu":59,"fang":60,"xiao":61,"hua":62,"tong":63,"shen":64,"zheng":65,"hai":66,"lai":67,"qu":68,"guan":69,"yong":70,"er":71,"jiao":72,"ni":73,"neng":74,"shou":75,"yan":76,"qing":77,"hou":78,"wen":79,"dui":80,"ying":81,"si":82,"ju":83,"xia":84,"dian":85,"ru":86,"huo":87,"chang":88,"dong":89,"yin":90,"bao":91,"hao":92,"duo":93,"xie":94,"dan":95,"bei":96,"liang":97,"fen":98,"bi":99,"qian":100,"yang":101,"dou":102,"na":103,"xu":104,"ming":105,"du":106,"gao":107,"bian":108,"ci":109,"zhang":110,"mian":111,"quan":112,"jiang":113,"ban":114,"ding":115,"wang":116,"fan":117,"gu":118,"tian":119,"dai":120,"kan":121,"cai":122,"ba":123,"hu":124,"zhan":125,"me":126,"suo":127,"kai":128,"bing":129,"she":130,"tai":131,"nian":132,"shuo":133,"an":134,"ran":135,"gan":136,"deng":137,"wan":138,"zui":139,"mu":140,"hen":141,"ben":142,"dang":143,"ma":144,"fei":145,"lian":146,"zhen":147,"gai":148,"shui":149,"biao":150,"jue":151,"yue":152,"huan":153,"tou":154,"liu":155,"pin":156,"zu":157,"chi":158,"lu":159,"su":160,"ping":161,"zhao":162,"chan":163,"nei":164,"ling":165,"lao":166,"nan":167,"zhuan":168,"feng":169,"gou":170,"tu":171,"liao":172,"bai":173,"lv":174,"gui":175,"geng":176,"duan":177,"que":178,"cong":179,"cha":180,"ze":181,"mo":182,"qiu":183,"shao":184,"san":185,"chuan":186,"zhou":187,"kao":188,"guang":189,"zao":190,"ting":191,"ya":192,"mai":193,"shan":194,"kong":195,"wai":196,"rong":197,"rang":198,"yun":199,"zhuang":200,"lei":201,"gei":202,"tiao":203,"qiang":204,"che":205,"lin":206,"min":207,"xuan":208,"zong":209,"luo":210,"te":211,"ce":212,"pai":213,"gen":214,"bo":215,"sui":216,"han":217,"jun":218,"chong":219,"man":220,"lun":221,"qie":222,"cun":223,"se":224,"pei":225,"chuang":226,"kuai":227,"a":228,"xun":229,"mi":230,"bie":231,"pian":232,"kou":233,"suan":234,"ri":235,"tui":236,"tan":237,"gang":238,"qin":239,"ai":240,"chao":241,"can":242,"pi":243,"xiu":244,"kuang":245,"tao":246,"diao":247,"nv":248,"huang":249,"hang":250,"zou":251,"la":252,"mao":253,"chen":254,"zhun":255,"lan":256,"tang":257,"sha":258,"song":259,"lie":260,"ceng":261,"pu":262,"po":263,"hong":264,"nong":265,"bang":266,"zen":267,"pan":268,"tuo":269,"ku":270,"cuo":271,"zeng":272,"e":273,"re":274,"peng":275,"cao":276,"kang":277,"qiao":278,"meng":279,"hun":280,"chun":281,"kuo":282,"qun":283,"ne":284,"tie":285,"kuan":286,"tuan":287,"shuang":288,"pao":289,"nao":290,"mou":291,"piao":292,"long":293,"miao":294,"nai":295,"huai":296,"ruo":297,"pa":298,"chou":299,"hei":300,"fou":301,"rou":302,"xiong":303,"zhuo":304,"lou":305,"sun":306,"lang":307,"ka":308,"ou":309,"cang":310,"nin":311,"ruan":312,"sai":313,"ao":314,"cu":315,"wa":316,"ning":317,"niu":318,"nu":319,"shun":320,"heng":321,"leng":322,"die":323,"za":324,"kun":325,"dun":326,"zha":327,"mang":328,"ken":329,"zhui":330,"lve":331,"reng":332,"zan":333,"gua":334,"pang":335,"kui":336,"luan":337,"zhai":338,"ha":339,"juan":340,"teng":341,"cui":342,"rao":343,"niao":344,"zun":345,"shuai":346,"en":347,"chui":348,"zang":349,"guai":350,"sa":351,"zhua":352,"sou":353,"shua":354,"bin":355,"kua":356,"nuo":357,"sao":358,"rui":359,"niang":360,"pen":361,"chai":362,"o":363,"run":364,"nuan":365,"mie":366,"qiong":367,"sen":368,"sang":369,"gun":370,"ang":371,"beng":372,"qia":373,"shai":374,"tun":375,"fo":376,"ca":377,"zuan":378,"diu":379,"nie":380,"ga":381,"keng":382,"nang":383,"lia":384,"nen":385,"cou":386,"shei":387,"n":388,"weng":389,"shuan":390,"pou":391,"seng":392,"chuo":393,"pie":394,"chuai":395,"cuan":396,"nve":397,"zei":398,"jiong":399,"zhuai":400,"dei":401,"yo":402,"miu":403,"cen":404,"ei":405,"lo":406,"den":407,"nou":408,"rua":409}}
